{
  "version": "1.0",
  "truncation": null,
  "padding": null,
  "added_tokens": [
    {
      "id": 0,
      "content": "[UNK]",
      "single_word": false,
      "lstrip": false,
      "rstrip": false,
      "normalized": false,
      "special": true
    },
    {
      "id": 1,
      "content": "[PAD]",
      "single_word": false,
      "lstrip": false,
      "rstrip": false,
      "normalized": false,
      "special": true
    },
    {
      "id": 2,
      "content": "[CLS]",
      "single_word": false,
      "lstrip": false,
      "rstrip": false,
      "normalized": false,
      "special": true
    },
    {
      "id": 3,
      "content": "[SEP]",
      "single_word": false,
      "lstrip": false,
      "rstrip": false,
      "normalized": false,
      "special": true
    },
    {
      "id": 4,
      "content": "[MASK]",
      "single_word": false,
      "lstrip": false,
      "rstrip": false,
      "normalized": false,
      "special": true
    }
  ],
  "normalizer": {
    "type": "Sequence",
    "normalizers": [
      {
        "type": "NFD"
      },
      {
        "type": "Lowercase"
      },
      {
        "type": "StripAccents"
      }
    ]
  },
  "pre_tokenizer": {
    "type": "Sequence",
    "pretokenizers": [
      {
        "type": "WhitespaceSplit"
      },
      {
        "type": "Punctuation",
        "behavior": "Isolated"
      }
    ]
  },
  "post_processor": {
    "type": "TemplateProcessing",
    "single": [
      {
        "SpecialToken": {
          "id": "[CLS]",
          "type_id": 0
        }
      },
      {
        "Sequence": {
          "id": "A",
          "type_id": 0
        }
      },
      {
        "SpecialToken": {
          "id": "[SEP]",
          "type_id": 0
        }
      }
    ],
    "pair": [
      {
        "SpecialToken": {
          "id": "[CLS]",
          "type_id": 0
        }
      },
      {
        "Sequence": {
          "id": "A",
          "type_id": 0
        }
      },
      {
        "SpecialToken": {
          "id": "[SEP]",
          "type_id": 0
        }
      },
      {
        "Sequence": {
          "id": "B",
          "type_id": 1
        }
      },
      {
        "SpecialToken": {
          "id": "[SEP]",
          "type_id": 1
        }
      }
    ],
    "special_tokens": {
      "[CLS]": {
        "id": "[CLS]",
        "ids": [
          2
        ],
        "tokens": [
          "[CLS]"
        ]
      },
      "[SEP]": {
        "id": "[SEP]",
        "ids": [
          3
        ],
        "tokens": [
          "[SEP]"
        ]
      }
    }
  },
  "decoder": {
    "type": "WordPiece",
    "prefix": "##",
    "cleanup": true
  },
  "model": {
    "type": "WordPiece",
    "unk_token": "[UNK]",
    "continuing_subword_prefix": "##",
    "max_input_chars_per_word": 100,
    "vocab": {
      "[UNK]": 0,
      "[PAD]": 1,
      "[CLS]": 2,
      "[SEP]": 3,
      "[MASK]": 4,
      "!": 5,
      "\"": 6,
      "%": 7,
      "&": 8,
      "'": 9,
      "(": 10,
      ")": 11,
      ",": 12,
      "-": 13,
      ".": 14,
      "/": 15,
      "0": 16,
      "1": 17,
      "2": 18,
      "3": 19,
      "4": 20,
      "5": 21,
      "6": 22,
      "7": 23,
      "8": 24,
      "9": 25,
      ":": 26,
      ";": 27,
      "?": 28,
      "a": 29,
      "b": 30,
      "c": 31,
      "d": 32,
      "e": 33,
      "f": 34,
      "g": 35,
      "h": 36,
      "i": 37,
      "j": 38,
      "k": 39,
      "l": 40,
      "m": 41,
      "n": 42,
      "o": 43,
      "p": 44,
      "q": 45,
      "r": 46,
      "s": 47,
      "t": 48,
      "u": 49,
      "v": 50,
      "w": 51,
      "x": 52,
      "y": 53,
      "z": 54,
      "«": 55,
      "°": 56,
      "»": 57,
      "œ": 58,
      "’": 59,
      "##r": 60,
      "##a": 61,
      "##t": 62,
      "##i": 63,
      "##q": 64,
      "##u": 65,
      "##e": 66,
      "##c": 67,
      "##p": 68,
      "##z": 69,
      "##o": 70,
      "##h": 71,
      "##n": 72,
      "##v": 73,
      "##s": 74,
      "##d": 75,
      "##f": 76,
      "##m": 77,
      "##l": 78,
      "##b": 79,
      "##w": 80,
      "##y": 81,
      "##g": 82,
      "##x": 83,
      "##k": 84,
      "##5": 85,
      "##0": 86,
      "##3": 87,
      "##j": 88,
      "##œ": 89,
      "##1": 90,
      "##2": 91,
      "##6": 92,
      "##8": 93,
      "##9": 94,
      "##4": 95,
      "##°": 96,
      "##7": 97,
      "un": 98,
      "##an": 99,
      "de": 100,
      "##es": 101,
      "##ur": 102,
      "une": 103,
      "##en": 104,
      "##on": 105,
      "##er": 106,
      "##ant": 107,
      "##mm": 108,
      "##ou": 109,
      "##le": 110,
      "##ar": 111,
      "en": 112,
      "##is": 113,
      "##mme": 114,
      "##te": 115,
      "ho": 116,
      "##ent": 117,
      "##ec": 118,
      "##ans": 119,
      "dans": 120,
      "des": 121,
      "sur": 122,
      "##ue": 123,
      "et": 124,
      "##re": 125,
      "homme": 126,
      "##in": 127,
      "av": 128,
      "##il": 129,
      "##au": 130,
      "avec": 131,
      "ch": 132,
      "##or": 133,
      "##et": 134,
      "la": 135,
      "##ir": 136,
      "##it": 137,
      "fe": 138,
      "##ch": 139,
      "##ux": 140,
      "##ge": 141,
      "##our": 142,
      "##ne": 143,
      "##ss": 144,
      "tr": 145,
      "le": 146,
      "##al": 147,
      "##ers": 148,
      "femme": 149,
      "##st": 150,
      "##at": 151,
      "deux": 152,
      "##se": 153,
      "##eu": 154,
      "##ont": 155,
      "gr": 156,
      "##pe": 157,
      "au": 158,
      "##ot": 159,
      "##ille": 160,
      "##ie": 161,
      "est": 162,
      "##and": 163,
      "##ier": 164,
      "##lan": 165,
      "##ard": 166,
      "##ain": 167,
      "jou": 168,
      "re": 169,
      "qu": 170,
      "##nes": 171,
      "##out": 172,
      "co": 173,
      "##mmes": 174,
      "##que": 175,
      "##erson": 176,
      "person": 177,
      "##che": 178,
      "##ien": 179,
      "ass": 180,
      "mar": 181,
      "par": 182,
      "jeu": 183,
      "assis": 184,
      "pr": 185,
      "##oir": 186,
      "##ort": 187,
      "gar": 188,
      "##us": 189,
      "se": 190,
      "rou": 191,
      "fa": 192,
      "blan": 193,
      "##as": 194,
      "reg": 195,
      "deb": 196,
      "regard": 197,
      "##con": 198,
      "##ment": 199,
      "chien": 200,
      "garcon": 201,
      "##mb": 202,
      "enf": 203,
      "debout": 204,
      "##vant": 205,
      "che": 206,
      "enfant": 207,
      "personnes": 208,
      "sont": 209,
      "##la": 210,
      "##ois": 211,
      "##urs": 212,
      "##andis": 213,
      "sa": 214,
      "##ic": 215,
      "jeune": 216,
      "##oupe": 217,
      "ar": 218,
      "devant": 219,
      "tandis": 220,
      "ble": 221,
      "ten": 222,
      "hommes": 223,
      "sh": 224,
      "aut": 225,
      "fille": 226,
      "pet": 227,
      "##ill": 228,
      "du": 229,
      "port": 230,
      "##ati": 231,
      "cour": 232,
      "les": 233,
      "groupe": 234,
      "##ire": 235,
      "##qu": 236,
      "noir": 237,
      "que": 238,
      "##iere": 239,
      "##ol": 240,
      "##de": 241,
      "##el": 242,
      "blanc": 243,
      "##tes": 244,
      "##all": 245,
      "##ure": 246,
      "rue": 247,
      "son": 248,
      "##end": 249,
      "##ab": 250,
      "##os": 251,
      "rouge": 252,
      "##av": 253,
      "##ce": 254,
      "##irt": 255,
      "shirt": 256,
      "##ise": 257,
      "pour": 258,
      "##ient": 259,
      "portant": 260,
      "##be": 261,
      "##ors": 262,
      "##ag": 263,
      "##mp": 264,
      "ro": 265,
      "br": 266,
      "vet": 267,
      "##ve": 268,
      "joue": 269,
      "##res": 270,
      "##un": 271,
      "gen": 272,
      "##ass": 273,
      "##ine": 274,
      "##ate": 275,
      "##me": 276,
      "##riere": 277,
      "bleu": 278,
      "##ite": 279,
      "sau": 280,
      "march": 281,
      "train": 282,
      "gens": 283,
      "trois": 284,
      "##ap": 285,
      "ver": 286,
      "petit": 287,
      "cou": 288,
      "eau": 289,
      "trav": 290,
      "##age": 291,
      "cha": 292,
      "##ion": 293,
      "femmes": 294,
      "fait": 295,
      "##oto": 296,
      "cote": 297,
      "##ig": 298,
      "enfants": 299,
      "qui": 300,
      "##ro": 301,
      "pl": 302,
      "chem": 303,
      "or": 304,
      "pro": 305,
      "ph": 306,
      "##uit": 307,
      "tient": 308,
      "regarde": 309,
      "pres": 310,
      "autre": 311,
      "in": 312,
      "##ique": 313,
      "po": 314,
      "pla": 315,
      "ma": 316,
      "##ole": 317,
      "vetu": 318,
      "il": 319,
      "##if": 320,
      "at": 321,
      "##aux": 322,
      "##able": 323,
      "##ul": 324,
      "##ige": 325,
      "##isant": 326,
      "plan": 327,
      "photo": 328,
      "##ter": 329,
      "personne": 330,
      "##am": 331,
      "##iv": 332,
      "jau": 333,
      "grand": 334,
      "bal": 335,
      "marche": 336,
      "ap": 337,
      "no": 338,
      "tenant": 339,
      "##anc": 340,
      "air": 341,
      "cas": 342,
      "quel": 343,
      "te": 344,
      "jouant": 345,
      "ou": 346,
      "##lle": 347,
      "ter": 348,
      "vel": 349,
      "fo": 350,
      "##are": 351,
      "##illes": 352,
      "##oule": 353,
      "##ettes": 354,
      "att": 355,
      "ball": 356,
      "##ong": 357,
      "##ous": 358,
      "##ques": 359,
      "jaune": 360,
      "chemise": 361,
      "dess": 362,
      "##ay": 363,
      "jeunes": 364,
      "bati": 365,
      "batiment": 366,
      "##ball": 367,
      "##orte": 368,
      "##asse": 369,
      "velo": 370,
      "main": 371,
      "##ange": 372,
      "##les": 373,
      "##este": 374,
      "##ott": 375,
      "be": 376,
      "petite": 377,
      "trava": 378,
      "jouent": 379,
      "lors": 380,
      "ne": 381,
      "tout": 382,
      "regardant": 383,
      "arriere": 384,
      "##oit": 385,
      "deh": 386,
      "dehors": 387,
      "ec": 388,
      "##ante": 389,
      "##um": 390,
      "##ons": 391,
      "mont": 392,
      "##mble": 393,
      "##lon": 394,
      "lun": 395,
      "ex": 396,
      "trott": 397,
      "vert": 398,
      "blanche": 399,
      "lunettes": 400,
      "ent": 401,
      "plus": 402,
      "fr": 403,
      "casque": 404,
      "##ette": 405,
      "veste": 406,
      "##ene": 407,
      "sour": 408,
      "##ile": 409,
      "app": 410,
      "ses": 411,
      "saute": 412,
      "long": 413,
      "##ose": 414,
      "sk": 415,
      "assise": 416,
      "trottoir": 417,
      "con": 418,
      "der": 419,
      "dessus": 420,
      "##ect": 421,
      "faisant": 422,
      "al": 423,
      "regardent": 424,
      "table": 425,
      "##veux": 426,
      "cheveux": 427,
      "foot": 428,
      "sc": 429,
      "foule": 430,
      "st": 431,
      "##iste": 432,
      "brun": 433,
      "##ff": 434,
      "porte": 435,
      "age": 436,
      "marchant": 437,
      "derriere": 438,
      "court": 439,
      "plage": 440,
      "##ieur": 441,
      "##ges": 442,
      "bleue": 443,
      "as": 444,
      "ad": 445,
      "##peau": 446,
      "am": 447,
      "bois": 448,
      "##tant": 449,
      "##tte": 450,
      "##lo": 451,
      "##bo": 452,
      "##ver": 453,
      "##ieurs": 454,
      "font": 455,
      "her": 456,
      "neige": 457,
      "sac": 458,
      "vi": 459,
      "##uis": 460,
      "es": 461,
      "##sse": 462,
      "ballon": 463,
      "##ade": 464,
      "arb": 465,
      "##endant": 466,
      "quelque": 467,
      "##ments": 468,
      "plusieurs": 469,
      "je": 470,
      "ob": 471,
      "##one": 472,
      "rose": 473,
      "bar": 474,
      "##iers": 475,
      "coup": 476,
      "ba": 477,
      "met": 478,
      "chose": 479,
      "##ts": 480,
      "vers": 481,
      "##ord": 482,
      "##atre": 483,
      "##mbre": 484,
      "autres": 485,
      "herbe": 486,
      "##ble": 487,
      "filles": 488,
      "##iati": 489,
      "asiati": 490,
      "##rain": 491,
      "orange": 492,
      "##isc": 493,
      "ve": 494,
      "##ches": 495,
      "##eur": 496,
      "hau": 497,
      "tenue": 498,
      "man": 499,
      "pre": 500,
      "##ct": 501,
      "travers": 502,
      "aux": 503,
      "bat": 504,
      "marchent": 505,
      "chev": 506,
      "mur": 507,
      "##ron": 508,
      "##iss": 509,
      "quatre": 510,
      "sp": 511,
      "chiens": 512,
      "guit": 513,
      "cost": 514,
      "##ume": 515,
      "sous": 516,
      "chapeau": 517,
      "##ra": 518,
      "football": 519,
      "bou": 520,
      "ville": 521,
      "vie": 522,
      "voit": 523,
      "##illot": 524,
      "##terieur": 525,
      "parc": 526,
      "##ation": 527,
      "ca": 528,
      "##ph": 529,
      "maillot": 530,
      "##iant": 531,
      "##ui": 532,
      "noire": 533,
      "##ru": 534,
      "equ": 535,
      "autour": 536,
      "##oy": 537,
      "ense": 538,
      "blon": 539,
      "balle": 540,
      "sole": 541,
      "leurs": 542,
      "soleil": 543,
      "robe": 544,
      "esc": 545,
      "##int": 546,
      "bas": 547,
      "guitare": 548,
      "garcons": 549,
      "##ues": 550,
      "##ures": 551,
      "##lant": 552,
      "course": 553,
      "ac": 554,
      "pe": 555,
      "assises": 556,
      "hab": 557,
      "##board": 558,
      "elle": 559,
      "pou": 560,
      "##rit": 561,
      "jour": 562,
      "pass": 563,
      "sal": 564,
      "rep": 565,
      "sol": 566,
      "##ing": 567,
      "skate": 568,
      "prend": 569,
      "##ente": 570,
      "##im": 571,
      "escal": 572,
      "##est": 573,
      "mat": 574,
      "##euse": 575,
      "banc": 576,
      "marron": 577,
      "ensemble": 578,
      "mag": 579,
      "scene": 580,
      "car": 581,
      "##elle": 582,
      "##ub": 583,
      "##ateau": 584,
      "##til": 585,
      "terre": 586,
      "travaill": 587,
      "pant": 588,
      "pantal": 589,
      "##ule": 590,
      "##ere": 591,
      "joueur": 592,
      "terrain": 593,
      "##ili": 594,
      "##nee": 595,
      "col": 596,
      "gars": 597,
      "can": 598,
      "##oup": 599,
      "cont": 600,
      "cam": 601,
      "ple": 602,
      "vetue": 603,
      "tele": 604,
      "short": 605,
      "##tent": 606,
      "vete": 607,
      "##icain": 608,
      "haut": 609,
      "bord": 610,
      "asiatique": 611,
      "##phone": 612,
      "an": 613,
      "##vr": 614,
      "equi": 615,
      "lui": 616,
      "so": 617,
      "##ad": 618,
      "##rap": 619,
      "##nent": 620,
      "tres": 621,
      "##ac": 622,
      "##ais": 623,
      "gris": 624,
      "tete": 625,
      "pi": 626,
      "jean": 627,
      "pantalon": 628,
      "roch": 629,
      "obj": 630,
      "voiture": 631,
      "pol": 632,
      "costume": 633,
      "bon": 634,
      "rec": 635,
      "mic": 636,
      "##he": 637,
      "##yc": 638,
      "dos": 639,
      "util": 640,
      "verte": 641,
      "part": 642,
      "nour": 643,
      "montag": 644,
      "casquette": 645,
      "vis": 646,
      "couple": 647,
      "chau": 648,
      "base": 649,
      "cl": 650,
      "##ee": 651,
      "##leurs": 652,
      "acc": 653,
      "vetements": 654,
      "bebe": 655,
      "route": 656,
      "cheval": 657,
      "ray": 658,
      "to": 659,
      "mus": 660,
      "##lent": 661,
      "gros": 662,
      "me": 663,
      "pos": 664,
      "##stru": 665,
      "habille": 666,
      "match": 667,
      "##oire": 668,
      "champ": 669,
      "cuis": 670,
      "##asin": 671,
      "magasin": 672,
      "ouvr": 673,
      "entre": 674,
      "##iques": 675,
      "amer": 676,
      "exterieur": 677,
      "bateau": 678,
      "mante": 679,
      "##aire": 680,
      "grande": 681,
      "nombre": 682,
      "nourrit": 683,
      "sautant": 684,
      "equipe": 685,
      "prep": 686,
      "telephone": 687,
      "pendant": 688,
      "##ip": 689,
      "##id": 690,
      "surf": 691,
      "rouges": 692,
      "pisc": 693,
      "piscine": 694,
      "moto": 695,
      "##orm": 696,
      "##orde": 697,
      "sable": 698,
      "nourriture": 699,
      "##nis": 700,
      "##we": 701,
      "##ert": 702,
      "fon": 703,
      "art": 704,
      "ta": 705,
      "mili": 706,
      "milieu": 707,
      "courant": 708,
      "##per": 709,
      "americain": 710,
      "##ance": 711,
      "contre": 712,
      "cyc": 713,
      "cla": 714,
      "leur": 715,
      "comp": 716,
      "do": 717,
      "##enant": 718,
      "adul": 719,
      "ra": 720,
      "spect": 721,
      "##orme": 722,
      "arbre": 723,
      "cycl": 724,
      "swe": 725,
      "prof": 726,
      "parle": 727,
      "faire": 728,
      "manteau": 729,
      "sweat": 730,
      "##ger": 731,
      "##isse": 732,
      "##ck": 733,
      "passe": 734,
      "pub": 735,
      "bo": 736,
      "##ide": 737,
      "prom": 738,
      "skateboard": 739,
      "##urant": 740,
      "pose": 741,
      "viole": 742,
      "gile": 743,
      "##ition": 744,
      "rest": 745,
      "##ale": 746,
      "noirs": 747,
      "feu": 748,
      "bras": 749,
      "micro": 750,
      "##ds": 751,
      "##onne": 752,
      "desc": 753,
      "souriant": 754,
      "char": 755,
      "##ction": 756,
      "journee": 757,
      "publ": 758,
      "blancs": 759,
      "##igne": 760,
      "##umes": 761,
      "ess": 762,
      "pan": 763,
      "resta": 764,
      "##use": 765,
      "##ri": 766,
      "visage": 767,
      "##mpl": 768,
      "vieil": 769,
      "lit": 770,
      "travaille": 771,
      "pel": 772,
      "vol": 773,
      "##uie": 774,
      "courent": 775,
      "ram": 776,
      "pie": 777,
      "tour": 778,
      "##ouve": 779,
      "##aine": 780,
      "chant": 781,
      "face": 782,
      "frap": 783,
      "bask": 784,
      "nu": 785,
      "restaurant": 786,
      "cr": 787,
      "ser": 788,
      "blonde": 789,
      "riv": 790,
      "rasse": 791,
      "tennis": 792,
      "##vert": 793,
      "eux": 794,
      "jouet": 795,
      "coll": 796,
      "montagne": 797,
      "ag": 798,
      "##leur": 799,
      "dec": 800,
      "mais": 801,
      "salle": 802,
      "sourit": 803,
      "oce": 804,
      "camion": 805,
      "ce": 806,
      "pat": 807,
      "attend": 808,
      "ocean": 809,
      "portable": 810,
      "chemin": 811,
      "etre": 812,
      "pier": 813,
      "##longe": 814,
      "allonge": 815,
      "beau": 816,
      "liv": 817,
      "mains": 818,
      "##ai": 819,
      "##op": 820,
      "gla": 821,
      "public": 822,
      "bain": 823,
      "cin": 824,
      "mon": 825,
      "per": 826,
      "##teur": 827,
      "##iel": 828,
      "cinq": 829,
      "piste": 830,
      "##iot": 831,
      "##vers": 832,
      "##istes": 833,
      "##iff": 834,
      "arbres": 835,
      "peint": 836,
      "disc": 837,
      "ord": 838,
      "fleurs": 839,
      "plein": 840,
      "ep": 841,
      "##uits": 842,
      "dep": 843,
      "cuisine": 844,
      "attrap": 845,
      "appare": 846,
      "agee": 847,
      "##ouse": 848,
      "rempl": 849,
      "apres": 850,
      "bu": 851,
      "##ler": 852,
      "tente": 853,
      "vag": 854,
      "on": 855,
      "vo": 856,
      "unif": 857,
      "objet": 858,
      "baseball": 859,
      "appareil": 860,
      "##ces": 861,
      "comb": 862,
      "##ign": 863,
      "ele": 864,
      "##ateurs": 865,
      "instru": 866,
      "##esc": 867,
      "##ages": 868,
      "##ateur": 869,
      "##coup": 870,
      "beaucoup": 871,
      "parlant": 872,
      "basket": 873,
      "##tre": 874,
      "##ix": 875,
      "##iennent": 876,
      "tenues": 877,
      "chante": 878,
      "pouss": 879,
      "raye": 880,
      "vetus": 881,
      "quelqu": 882,
      "chauss": 883,
      "pen": 884,
      "tab": 885,
      "jouer": 886,
      "debard": 887,
      "dra": 888,
      "sec": 889,
      "danse": 890,
      "comm": 891,
      "piec": 892,
      "cre": 893,
      "nuit": 894,
      "pap": 895,
      "##net": 896,
      "##enet": 897,
      "joueurs": 898,
      "clot": 899,
      "attraper": 900,
      "fig": 901,
      "mo": 902,
      "tor": 903,
      "##ak": 904,
      "travaillant": 905,
      "cloture": 906,
      "aff": 907,
      "##ret": 908,
      "fenet": 909,
      "ju": 910,
      "##ses": 911,
      "balanc": 912,
      "##issant": 913,
      "polic": 914,
      "ouvriers": 915,
      "violet": 916,
      "bus": 917,
      "mot": 918,
      "descend": 919,
      "discu": 920,
      "gue": 921,
      "tiennent": 922,
      "planche": 923,
      "ech": 924,
      "pec": 925,
      "##ins": 926,
      "##neige": 927,
      "prepar": 928,
      "livre": 929,
      "debardeur": 930,
      "##ises": 931,
      "##ey": 932,
      "##ett": 933,
      "lac": 934,
      "entour": 935,
      "rampe": 936,
      "##air": 937,
      "##peaux": 938,
      "pont": 939,
      "##ace": 940,
      "travaillent": 941,
      "piece": 942,
      "gueule": 943,
      "##cher": 944,
      "##stique": 945,
      "interieur": 946,
      "riviere": 947,
      "af": 948,
      "lo": 949,
      "mange": 950,
      "##teau": 951,
      "blanches": 952,
      "bleus": 953,
      "##lles": 954,
      "enneige": 955,
      "petits": 956,
      "bonnet": 957,
      "ordin": 958,
      "tir": 959,
      "##osse": 960,
      "##no": 961,
      "##ureau": 962,
      "prod": 963,
      "conc": 964,
      "rocher": 965,
      "musique": 966,
      "adultes": 967,
      "##ies": 968,
      "semble": 969,
      "ils": 970,
      "torse": 971,
      "quelques": 972,
      "cycliste": 973,
      "bi": 974,
      "fl": 975,
      "##gent": 976,
      "barb": 977,
      "fenetre": 978,
      "nage": 979,
      "##verte": 980,
      "maison": 981,
      "pierre": 982,
      "def": 983,
      "##ckey": 984,
      "emb": 985,
      "su": 986,
      "##bre": 987,
      "##ants": 988,
      "##illee": 989,
      "chaise": 990,
      "mach": 991,
      "ecla": 992,
      "carre": 993,
      "glace": 994,
      "utilise": 995,
      "spectateurs": 996,
      "##ond": 997,
      "##ils": 998,
      "ind": 999,
      "parap": 1000,
      "gl": 1001,
      "##ectif": 1002,
      "##dre": 1003,
      "##eton": 1004,
      "pelouse": 1005,
      "parapl": 1006,
      "objectif": 1007,
      "corde": 1008,
      "ev": 1009,
      "lanc": 1010,
      "vit": 1011,
      "##ud": 1012,
      "##ang": 1013,
      "##oute": 1014,
      "##ents": 1015,
      "##ull": 1016,
      "stand": 1017,
      "chariot": 1018,
      "couvert": 1019,
      "asiatiques": 1020,
      "gilet": 1021,
      "##cu": 1022,
      "marches": 1023,
      "combin": 1024,
      "lance": 1025,
      "##ess": 1026,
      "##let": 1027,
      "##rete": 1028,
      "fete": 1029,
      "costumes": 1030,
      "combinais": 1031,
      "sno": 1032,
      "##ache": 1033,
      "##oux": 1034,
      "colo": 1035,
      "montre": 1036,
      "tire": 1037,
      "##anges": 1038,
      "leg": 1039,
      "##olesc": 1040,
      "##ays": 1041,
      "nett": 1042,
      "rand": 1043,
      "##ape": 1044,
      "##grap": 1045,
      "point": 1046,
      "adolesc": 1047,
      "metro": 1048,
      "balancoire": 1049,
      "colore": 1050,
      "fer": 1051,
      "mou": 1052,
      "zone": 1053,
      "##umer": 1054,
      "manger": 1055,
      "polo": 1056,
      "snow": 1057,
      "fau": 1058,
      "pays": 1059,
      "##esse": 1060,
      "fam": 1061,
      "sport": 1062,
      "##acle": 1063,
      "posent": 1064,
      "vague": 1065,
      "snowboard": 1066,
      "##aie": 1067,
      "##uche": 1068,
      "##pes": 1069,
      "##nel": 1070,
      "prenant": 1071,
      "##lage": 1072,
      "essay": 1073,
      "figure": 1074,
      "##eux": 1075,
      "##son": 1076,
      "##art": 1077,
      "##mbe": 1078,
      "sacs": 1079,
      "cir": 1080,
      "peu": 1081,
      "sort": 1082,
      "regarder": 1083,
      "blond": 1084,
      "escalade": 1085,
      "eff": 1086,
      "trouve": 1087,
      "couleur": 1088,
      "baton": 1089,
      "recou": 1090,
      "partic": 1091,
      "ret": 1092,
      "##aff": 1093,
      "##mi": 1094,
      "hockey": 1095,
      "parlent": 1096,
      "foret": 1097,
      "pieds": 1098,
      "band": 1099,
      "pull": 1100,
      "vend": 1101,
      "##iment": 1102,
      "##uy": 1103,
      "##ores": 1104,
      "##iens": 1105,
      "briques": 1106,
      "oranges": 1107,
      "cond": 1108,
      "penche": 1109,
      "machine": 1110,
      "fre": 1111,
      "li": 1112,
      "panc": 1113,
      "exp": 1114,
      "chaussures": 1115,
      "famille": 1116,
      "##ope": 1117,
      "##fe": 1118,
      "avant": 1119,
      "beige": 1120,
      "panne": 1121,
      "ordinateur": 1122,
      "embr": 1123,
      "pancar": 1124,
      "graff": 1125,
      "cow": 1126,
      "##mblent": 1127,
      "##oyen": 1128,
      "colline": 1129,
      "graffit": 1130,
      "pois": 1131,
      "##bes": 1132,
      "##gg": 1133,
      "end": 1134,
      "quai": 1135,
      "##deo": 1136,
      "passent": 1137,
      "photograp": 1138,
      "casques": 1139,
      "longs": 1140,
      "escalier": 1141,
      "music": 1142,
      "frequ": 1143,
      "cor": 1144,
      "moyen": 1145,
      "numer": 1146,
      "##sole": 1147,
      "##ym": 1148,
      "##erc": 1149,
      "verre": 1150,
      "jaunes": 1151,
      "pousse": 1152,
      "journ": 1153,
      "prendre": 1154,
      "prepare": 1155,
      "carreaux": 1156,
      "frequente": 1157,
      "pil": 1158,
      "##vent": 1159,
      "##uses": 1160,
      "##icule": 1161,
      "shirts": 1162,
      "fontaine": 1163,
      "vieux": 1164,
      "cu": 1165,
      "dis": 1166,
      "tap": 1167,
      "##ote": 1168,
      "metall": 1169,
      "cafe": 1170,
      "canape": 1171,
      "elles": 1172,
      "##vre": 1173,
      "##entre": 1174,
      "##otos": 1175,
      "photos": 1176,
      "enneigee": 1177,
      "combinaison": 1178,
      "ciel": 1179,
      "##onge": 1180,
      "ensole": 1181,
      "##chant": 1182,
      "entrain": 1183,
      "doig": 1184,
      "gym": 1185,
      "pente": 1186,
      "##sons": 1187,
      "##auche": 1188,
      "noires": 1189,
      "bruns": 1190,
      "faute": 1191,
      "file": 1192,
      "jus": 1193,
      "tous": 1194,
      "##itaire": 1195,
      "parmi": 1196,
      "saut": 1197,
      "somme": 1198,
      "peche": 1199,
      "##aires": 1200,
      "parapluie": 1201,
      "fauteu": 1202,
      "##aise": 1203,
      "##pt": 1204,
      "##lier": 1205,
      "park": 1206,
      "constru": 1207,
      "##issent": 1208,
      "graffitis": 1209,
      "dont": 1210,
      "imp": 1211,
      "mas": 1212,
      "sorte": 1213,
      "vif": 1214,
      "##oses": 1215,
      "travail": 1216,
      "fris": 1217,
      "alors": 1218,
      "ensoleillee": 1219,
      "diff": 1220,
      "sou": 1221,
      "##cade": 1222,
      "##bee": 1223,
      "bleues": 1224,
      "pomp": 1225,
      "ecr": 1226,
      "obs": 1227,
      "bouche": 1228,
      "utilisant": 1229,
      "papier": 1230,
      "beton": 1231,
      "dir": 1232,
      "emp": 1233,
      "jo": 1234,
      "##om": 1235,
      "##ines": 1236,
      "pom": 1237,
      "##iver": 1238,
      "ont": 1239,
      "cette": 1240,
      "pav": 1241,
      "##ive": 1242,
      "##ieres": 1243,
      "stat": 1244,
      "barbe": 1245,
      "fonce": 1246,
      "gilets": 1247,
      "rassemble": 1248,
      "sommet": 1249,
      "ja": 1250,
      "##rant": 1251,
      "dansent": 1252,
      "etud": 1253,
      "fruits": 1254,
      "ouvrier": 1255,
      "##ormes": 1256,
      "circ": 1257,
      "effect": 1258,
      "frisbee": 1259,
      "tou": 1260,
      "##ceau": 1261,
      "##ult": 1262,
      "##imite": 1263,
      "attendent": 1264,
      "loin": 1265,
      "cap": 1266,
      "forme": 1267,
      "hiver": 1268,
      "toit": 1269,
      "##ore": 1270,
      "##urite": 1271,
      "trou": 1272,
      "##terie": 1273,
      "nombreux": 1274,
      "clair": 1275,
      "adulte": 1276,
      "numero": 1277,
      "##ime": 1278,
      "##eurs": 1279,
      "##ley": 1280,
      "##chet": 1281,
      "genoux": 1282,
      "plonge": 1283,
      "vetues": 1284,
      "attendant": 1285,
      "esp": 1286,
      "pied": 1287,
      "frapper": 1288,
      "monte": 1289,
      "panneau": 1290,
      "statue": 1291,
      "bureau": 1292,
      "nus": 1293,
      "tas": 1294,
      "##ros": 1295,
      "##ini": 1296,
      "plastique": 1297,
      "cyclistes": 1298,
      "uniforme": 1299,
      "differ": 1300,
      "sans": 1301,
      "##roup": 1302,
      "##ut": 1303,
      "##ximite": 1304,
      "##entes": 1305,
      "proximite": 1306,
      "airs": 1307,
      "veh": 1308,
      "pleine": 1309,
      "dro": 1310,
      "ven": 1311,
      "vue": 1312,
      "place": 1313,
      "attra": 1314,
      "##enement": 1315,
      "boute": 1316,
      "journal": 1317,
      "gymn": 1318,
      "cig": 1319,
      "mor": 1320,
      "seu": 1321,
      "##ales": 1322,
      "passant": 1323,
      "volley": 1324,
      "instruments": 1325,
      "evenement": 1326,
      "bl": 1327,
      "lisant": 1328,
      "ligne": 1329,
      "mere": 1330,
      "dansant": 1331,
      "stru": 1332,
      "posant": 1333,
      "promen": 1334,
      "promene": 1335,
      "essayant": 1336,
      "struct": 1337,
      "reu": 1338,
      "##une": 1339,
      "##antes": 1340,
      "env": 1341,
      "##ours": 1342,
      "prote": 1343,
      "ski": 1344,
      "rochers": 1345,
      "spectacle": 1346,
      "feuilles": 1347,
      "drapeau": 1348,
      "defile": 1349,
      "pancarte": 1350,
      "lum": 1351,
      "pere": 1352,
      "six": 1353,
      "##aste": 1354,
      "portent": 1355,
      "##ivers": 1356,
      "montagnes": 1357,
      "cuisin": 1358,
      "uniformes": 1359,
      "##nant": 1360,
      "sautent": 1361,
      "maillots": 1362,
      "classe": 1363,
      "jupe": 1364,
      "entoure": 1365,
      "dort": 1366,
      "oise": 1367,
      "sent": 1368,
      "yeux": 1369,
      "##rine": 1370,
      "##ner": 1371,
      "##ennent": 1372,
      "coin": 1373,
      "chaises": 1374,
      "traverse": 1375,
      "accroup": 1376,
      "securite": 1377,
      "particip": 1378,
      "frequentee": 1379,
      "metallique": 1380,
      "jard": 1381,
      "pelle": 1382,
      "trans": 1383,
      "##atou": 1384,
      "grosse": 1385,
      "comme": 1386,
      "sauter": 1387,
      "anim": 1388,
      "nombreuses": 1389,
      "fonces": 1390,
      "mangeant": 1391,
      "structure": 1392,
      "fou": 1393,
      "##uant": 1394,
      "velos": 1395,
      "ecrit": 1396,
      "sourient": 1397,
      "compet": 1398,
      "concert": 1399,
      "lancer": 1400,
      "tapis": 1401,
      "vende": 1402,
      "cigar": 1403,
      "biere": 1404,
      "boy": 1405,
      "rol": 1406,
      "tatou": 1407,
      "##az": 1408,
      "##erie": 1409,
      "rem": 1410,
      "marie": 1411,
      "prennent": 1412,
      "rodeo": 1413,
      "chapeaux": 1414,
      "ecoute": 1415,
      "repas": 1416,
      "epau": 1417,
      "rempli": 1418,
      "fauteuil": 1419,
      "jardin": 1420,
      "alle": 1421,
      "ber": 1422,
      "belle": 1423,
      "##iche": 1424,
      "##ence": 1425,
      "inter": 1426,
      "viol": 1427,
      "frappe": 1428,
      "serv": 1429,
      "obser": 1430,
      "##ti": 1431,
      "##ust": 1432,
      "deg": 1433,
      "etant": 1434,
      "##ienne": 1435,
      "##mbres": 1436,
      "chef": 1437,
      "jeux": 1438,
      "voitures": 1439,
      "camp": 1440,
      "##ilibre": 1441,
      "habillee": 1442,
      "elect": 1443,
      "sentier": 1444,
      "aide": 1445,
      "borde": 1446,
      "##ach": 1447,
      "##port": 1448,
      "etend": 1449,
      "##aud": 1450,
      "roulant": 1451,
      "brune": 1452,
      "noel": 1453,
      "equilibre": 1454,
      "camer": 1455,
      "panier": 1456,
      "depuis": 1457,
      "##ignant": 1458,
      "competition": 1459,
      "bot": 1460,
      "donne": 1461,
      "gard": 1462,
      "rap": 1463,
      "##mier": 1464,
      "temp": 1465,
      "exam": 1466,
      "station": 1467,
      "##bogg": 1468,
      "accro": 1469,
      "tobogg": 1470,
      "glisse": 1471,
      "legumes": 1472,
      "toboggan": 1473,
      "bul": 1474,
      "gauche": 1475,
      "sus": 1476,
      "appr": 1477,
      "longue": 1478,
      "amis": 1479,
      "instrument": 1480,
      "tablier": 1481,
      "##ame": 1482,
      "grim": 1483,
      "##ande": 1484,
      "##quet": 1485,
      "cours": 1486,
      "proj": 1487,
      "bik": 1488,
      "randonne": 1489,
      "violon": 1490,
      "bien": 1491,
      "mult": 1492,
      "ore": 1493,
      "##ute": 1494,
      "##entant": 1495,
      "##ats": 1496,
      "##ection": 1497,
      "blonds": 1498,
      "chantant": 1499,
      "buvant": 1500,
      "barbu": 1501,
      "pilote": 1502,
      "cigarette": 1503,
      "susp": 1504,
      "cert": 1505,
      "fal": 1506,
      "imme": 1507,
      "ru": 1508,
      "##itant": 1509,
      "couleurs": 1510,
      "##ross": 1511,
      "pluie": 1512,
      "advers": 1513,
      "vieille": 1514,
      "skateur": 1515,
      "anime": 1516,
      "meme": 1517,
      "afr": 1518,
      "paysage": 1519,
      "boule": 1520,
      "dame": 1521,
      "gants": 1522,
      "ombre": 1523,
      "ur": 1524,
      "##pin": 1525,
      "##ling": 1526,
      "det": 1527,
      "##ist": 1528,
      "##tee": 1529,
      "grav": 1530,
      "ballons": 1531,
      "verts": 1532,
      "apprete": 1533,
      "all": 1534,
      "drapeaux": 1535,
      "nettoy": 1536,
      "etudiant": 1537,
      "morceau": 1538,
      "bottes": 1539,
      "surp": 1540,
      "grise": 1541,
      "##olf": 1542,
      "scul": 1543,
      "agees": 1544,
      "battent": 1545,
      "habilles": 1546,
      "repar": 1547,
      "colores": 1548,
      "rocheuse": 1549,
      "artiste": 1550,
      "doigt": 1551,
      "vehicule": 1552,
      "certain": 1553,
      "sand": 1554,
      "##mes": 1555,
      "##yant": 1556,
      "poteau": 1557,
      "traversent": 1558,
      "bonde": 1559,
      "med": 1560,
      "motard": 1561,
      "afro": 1562,
      "produits": 1563,
      "masque": 1564,
      "suspend": 1565,
      "falaise": 1566,
      "bout": 1567,
      "don": 1568,
      "eg": 1569,
      "enc": 1570,
      "trad": 1571,
      "marti": 1572,
      "##loy": 1573,
      "bow": 1574,
      "construction": 1575,
      "africain": 1576,
      "ages": 1577,
      "cal": 1578,
      "centre": 1579,
      "pa": 1580,
      "pau": 1581,
      "den": 1582,
      "##ice": 1583,
      "##icol": 1584,
      "##agne": 1585,
      "petites": 1586,
      "batiments": 1587,
      "sco": 1588,
      "micros": 1589,
      "client": 1590,
      "motoc": 1591,
      "rassemblent": 1592,
      "preparant": 1593,
      "snowboardeur": 1594,
      "bouteille": 1595,
      "tradition": 1596,
      "ab": 1597,
      "blo": 1598,
      "ete": 1599,
      "fil": 1600,
      "mil": 1601,
      "##iante": 1602,
      "##ible": 1603,
      "##mon": 1604,
      "cher": 1605,
      "tron": 1606,
      "seau": 1607,
      "##iree": 1608,
      "##aval": 1609,
      "robes": 1610,
      "ins": 1611,
      "amus": 1612,
      "escalad": 1613,
      "surfeur": 1614,
      "peinture": 1615,
      "martiaux": 1616,
      "coupe": 1617,
      "eche": 1618,
      "for": 1619,
      "fils": 1620,
      "pas": 1621,
      "##rique": 1622,
      "##enou": 1623,
      "##onde": 1624,
      "mari": 1625,
      "parler": 1626,
      "arts": 1627,
      "##iller": 1628,
      "courses": 1629,
      "grands": 1630,
      "mater": 1631,
      "but": 1632,
      "policier": 1633,
      "vitrine": 1634,
      "musiciens": 1635,
      "vendeur": 1636,
      "camera": 1637,
      "temps": 1638,
      "bowling": 1639,
      "fume": 1640,
      "##oss": 1641,
      "##ls": 1642,
      "##bou": 1643,
      "##wn": 1644,
      "hor": 1645,
      "##itre": 1646,
      "##euses": 1647,
      "vertes": 1648,
      "ath": 1649,
      "##ulant": 1650,
      "terr": 1651,
      "chevaux": 1652,
      "sold": 1653,
      "tomb": 1654,
      "multicol": 1655,
      "cab": 1656,
      "lire": 1657,
      "mer": 1658,
      "##estes": 1659,
      "##onnee": 1660,
      "leve": 1661,
      "gare": 1662,
      "roule": 1663,
      "convers": 1664,
      "mangent": 1665,
      "chantier": 1666,
      "couverture": 1667,
      "##ession": 1668,
      "embrass": 1669,
      "capuche": 1670,
      "ayant": 1671,
      "bag": 1672,
      "four": 1673,
      "##oi": 1674,
      "##onf": 1675,
      "##arpe": 1676,
      "avion": 1677,
      "tra": 1678,
      "##quette": 1679,
      "##roit": 1680,
      "ecout": 1681,
      "longues": 1682,
      "traversant": 1683,
      "preparent": 1684,
      "pavee": 1685,
      "aid": 1686,
      "achet": 1687,
      "elo": 1688,
      "roses": 1689,
      "##iner": 1690,
      "##ites": 1691,
      "ref": 1692,
      "##quant": 1693,
      "couche": 1694,
      "ouverte": 1695,
      "skieur": 1696,
      "collier": 1697,
      "agenou": 1698,
      "eclabou": 1699,
      "lieu": 1700,
      "filet": 1701,
      "espace": 1702,
      "etendue": 1703,
      "echelle": 1704,
      "aer": 1705,
      "cer": 1706,
      "clo": 1707,
      "ge": 1708,
      "kay": 1709,
      "ren": 1710,
      "ty": 1711,
      "##rer": 1712,
      "##uble": 1713,
      "##ves": 1714,
      "##isent": 1715,
      "##indre": 1716,
      "avoir": 1717,
      "coiff": 1718,
      "##atique": 1719,
      "orches": 1720,
      "manches": 1721,
      "premier": 1722,
      "canne": 1723,
      "patin": 1724,
      "bulles": 1725,
      "immeuble": 1726,
      "motocross": 1727,
      "materiel": 1728,
      "kayak": 1729,
      "orchestre": 1730,
      "ban": 1731,
      "gateau": 1732,
      "##oie": 1733,
      "##hon": 1734,
      "##ane": 1735,
      "##inte": 1736,
      "chin": 1737,
      "##otes": 1738,
      "argent": 1739,
      "tend": 1740,
      "sauv": 1741,
      "inst": 1742,
      "rayee": 1743,
      "profession": 1744,
      "descendant": 1745,
      "rivage": 1746,
      "poussette": 1747,
      "poisson": 1748,
      "photographe": 1749,
      "pompiers": 1750,
      "ecran": 1751,
      "differentes": 1752,
      "bikini": 1753,
      "##bal": 1754,
      "##alle": 1755,
      "autom": 1756,
      "orient": 1757,
      "inc": 1758,
      "batterie": 1759,
      "equipes": 1760,
      "sombre": 1761,
      "allongee": 1762,
      "remplie": 1763,
      "vagues": 1764,
      "discutent": 1765,
      "tirant": 1766,
      "adolescent": 1767,
      "parking": 1768,
      "employ": 1769,
      "droite": 1770,
      "boit": 1771,
      "nat": 1772,
      "resse": 1773,
      "vendant": 1774,
      "##by": 1775,
      "##ens": 1776,
      "etr": 1777,
      "##athon": 1778,
      "marathon": 1779,
      "appuy": 1780,
      "##adeau": 1781,
      "gymna": 1782,
      "urb": 1783,
      "cord": 1784,
      "mouve": 1785,
      "œu": 1786,
      "##toir": 1787,
      "##iette": 1788,
      "##lard": 1789,
      "dem": 1790,
      "laisse": 1791,
      "marcher": 1792,
      "cascade": 1793,
      "boissons": 1794,
      "boue": 1795,
      "passer": 1796,
      "comptoir": 1797,
      "violette": 1798,
      "essaie": 1799,
      "crav": 1800,
      "super": 1801,
      "foulard": 1802,
      "conversation": 1803,
      "clown": 1804,
      "fla": 1805,
      "jet": 1806,
      "oc": 1807,
      "pot": 1808,
      "tiss": 1809,
      "##rent": 1810,
      "##man": 1811,
      "##illage": 1812,
      "lab": 1813,
      "coucher": 1814,
      "inf": 1815,
      "traverser": 1816,
      "repos": 1817,
      "partie": 1818,
      "taureau": 1819,
      "peluche": 1820,
      "affiche": 1821,
      "recouverte": 1822,
      "condu": 1823,
      "attrape": 1824,
      "terrasse": 1825,
      "chinois": 1826,
      "gonf": 1827,
      "rit": 1828,
      "si": 1829,
      "vole": 1830,
      "##irage": 1831,
      "##illant": 1832,
      "##agent": 1833,
      "tableau": 1834,
      "footbal": 1835,
      "manif": 1836,
      "photograph": 1837,
      "animee": 1838,
      "surplo": 1839,
      "clients": 1840,
      "hors": 1841,
      "golf": 1842,
      "lu": 1843,
      "mir": 1844,
      "soule": 1845,
      "tasse": 1846,
      "va": 1847,
      "##min": 1848,
      "atte": 1849,
      "boisson": 1850,
      "tombe": 1851,
      "depla": 1852,
      "policiers": 1853,
      "pech": 1854,
      "endroit": 1855,
      "oiseau": 1856,
      "allee": 1857,
      "accroche": 1858,
      "pause": 1859,
      "mariage": 1860,
      "bol": 1861,
      "ciment": 1862,
      "flan": 1863,
      "sie": 1864,
      "vient": 1865,
      "##ib": 1866,
      "eng": 1867,
      "##iser": 1868,
      "##otte": 1869,
      "attache": 1870,
      "montrant": 1871,
      "conf": 1872,
      "guitar": 1873,
      "repres": 1874,
      "cart": 1875,
      "chauve": 1876,
      "echarpe": 1877,
      "mariee": 1878,
      "etudiants": 1879,
      "dents": 1880,
      "athle": 1881,
      "cordes": 1882,
      "cravate": 1883,
      "miroir": 1884,
      "dorm": 1885,
      "fleur": 1886,
      "gir": 1887,
      "muse": 1888,
      "nav": 1889,
      "tel": 1890,
      "##rou": 1891,
      "##ttes": 1892,
      "##cs": 1893,
      "chat": 1894,
      "##oter": 1895,
      "joueuse": 1896,
      "rousse": 1897,
      "##mblant": 1898,
      "##laire": 1899,
      "##ignes": 1900,
      "outil": 1901,
      "fond": 1902,
      "promenant": 1903,
      "voie": 1904,
      "objets": 1905,
      "randonnee": 1906,
      "rassemblees": 1907,
      "transport": 1908,
      "roller": 1909,
      "traditionnel": 1910,
      "eclabouss": 1911,
      "divers": 1912,
      "fro": 1913,
      "im": 1914,
      "mons": 1915,
      "tun": 1916,
      "tuy": 1917,
      "##ium": 1918,
      "##omp": 1919,
      "##ense": 1920,
      "##ations": 1921,
      "coureur": 1922,
      "coureurs": 1923,
      "##ifs": 1924,
      "##llement": 1925,
      "surfe": 1926,
      "barbec": 1927,
      "recouvert": 1928,
      "retour": 1929,
      "conduit": 1930,
      "endorm": 1931,
      "cuir": 1932,
      "animal": 1933,
      "##ustr": 1934,
      "electrique": 1935,
      "sculpt": 1936,
      "microsc": 1937,
      "monsieur": 1938,
      "tal": 1939,
      "##arde": 1940,
      "##quer": 1941,
      "##elles": 1942,
      "chemis": 1943,
      "int": 1944,
      "obst": 1945,
      "metal": 1946,
      "accorde": 1947,
      "taille": 1948,
      "profonde": 1949,
      "jouets": 1950,
      "adolescents": 1951,
      "souff": 1952,
      "barbecue": 1953,
      "range": 1954,
      "vestes": 1955,
      "##cant": 1956,
      "##oc": 1957,
      "desert": 1958,
      "surve": 1959,
      "##ree": 1960,
      "##ieme": 1961,
      "paroi": 1962,
      "maqu": 1963,
      "##ivent": 1964,
      "appre": 1965,
      "vive": 1966,
      "##uisse": 1967,
      "piet": 1968,
      "membres": 1969,
      "decor": 1970,
      "juste": 1971,
      "protection": 1972,
      "apprec": 1973,
      "surplomb": 1974,
      "chemisier": 1975,
      "cere": 1976,
      "caval": 1977,
      "jette": 1978,
      "kar": 1979,
      "##ront": 1980,
      "##hn": 1981,
      "##ecte": 1982,
      "##inge": 1983,
      "colle": 1984,
      "paras": 1985,
      "prair": 1986,
      "##ignent": 1987,
      "plantes": 1988,
      "##ama": 1989,
      "attent": 1990,
      "stade": 1991,
      "arbitre": 1992,
      "passage": 1993,
      "salon": 1994,
      "rece": 1995,
      "tourne": 1996,
      "pierres": 1997,
      "combat": 1998,
      "tables": 1999,
      "affront": 2000,
      "discutant": 2001,
      "corp": 2002,
      "disp": 2003,
      "promenade": 2004,
      "reun": 2005,
      "ecouteurs": 2006,
      "suspendu": 2007,
      "occu": 2008,
      "he": 2009,
      "har": 2010,
      "jong": 2011,
      "nou": 2012,
      "the": 2013,
      "##eau": 2014,
      "##ege": 2015,
      "##lise": 2016,
      "##orque": 2017,
      "##atoire": 2018,
      "sav": 2019,
      "bran": 2020,
      "balance": 2021,
      "manege": 2022,
      "entraine": 2023,
      "jusqu": 2024,
      "remorque": 2025,
      "sandales": 2026,
      "insp": 2027,
      "parasol": 2028,
      "prairie": 2029,
      "cerc": 2030,
      "gaz": 2031,
      "hum": 2032,
      "jol": 2033,
      "pne": 2034,
      "##ial": 2035,
      "##ouf": 2036,
      "##chent": 2037,
      "ruelle": 2038,
      "courts": 2039,
      "viande": 2040,
      "batte": 2041,
      "##ycle": 2042,
      "habillees": 2043,
      "volant": 2044,
      "poussant": 2045,
      "##aki": 2046,
      "epaules": 2047,
      "eglise": 2048,
      "microscope": 2049,
      "accordeon": 2050,
      "fin": 2051,
      "fum": 2052,
      "pique": 2053,
      "tet": 2054,
      "##nette": 2055,
      "##inant": 2056,
      "##nelle": 2057,
      "quart": 2058,
      "prop": 2059,
      "souriante": 2060,
      "vide": 2061,
      "barre": 2062,
      "##rime": 2063,
      "##escope": 2064,
      "##lettes": 2065,
      "peut": 2066,
      "direction": 2067,
      "effectuant": 2068,
      "seul": 2069,
      "projet": 2070,
      "labor": 2071,
      "gonfla": 2072,
      "tunnel": 2073,
      "tuyau": 2074,
      "quartier": 2075,
      "go": 2076,
      "id": 2077,
      "kaki": 2078,
      "off": 2079,
      "pal": 2080,
      "pag": 2081,
      "rues": 2082,
      "rub": 2083,
      "##af": 2084,
      "##to": 2085,
      "##ft": 2086,
      "##iles": 2087,
      "reb": 2088,
      "sale": 2089,
      "##ici": 2090,
      "plate": 2091,
      "##ivid": 2092,
      "toutes": 2093,
      "appl": 2094,
      "aliment": 2095,
      "barriere": 2096,
      "##eusement": 2097,
      "cano": 2098,
      "raquette": 2099,
      "commerc": 2100,
      "individ": 2101,
      "circul": 2102,
      "seule": 2103,
      "grimpe": 2104,
      "##monie": 2105,
      "mouvement": 2106,
      "representant": 2107,
      "surplombant": 2108,
      "cercle": 2109,
      "cro": 2110,
      "py": 2111,
      "ruisse": 2112,
      "signe": 2113,
      "tent": 2114,
      "virage": 2115,
      "##io": 2116,
      "##od": 2117,
      "enorme": 2118,
      "eto": 2119,
      "##etage": 2120,
      "arg": 2121,
      "arri": 2122,
      "courir": 2123,
      "appro": 2124,
      "batons": 2125,
      "poub": 2126,
      "touche": 2127,
      "blous": 2128,
      "reunis": 2129,
      "accroupi": 2130,
      "donnant": 2131,
      "tronc": 2132,
      "multicolore": 2133,
      "sauvetage": 2134,
      "telescope": 2135,
      "sculpture": 2136,
      "laboratoire": 2137,
      "aj": 2138,
      "cet": 2139,
      "dou": 2140,
      "joy": 2141,
      "pin": 2142,
      "sm": 2143,
      "tre": 2144,
      "##ait": 2145,
      "##ich": 2146,
      "##up": 2147,
      "##vis": 2148,
      "##vres": 2149,
      "##fs": 2150,
      "##itaires": 2151,
      "tric": 2152,
      "gri": 2153,
      "##pee": 2154,
      "##oise": 2155,
      "##ick": 2156,
      "##oline": 2157,
      "##ureux": 2158,
      "##mpoline": 2159,
      "##vee": 2160,
      "caisse": 2161,
      "##phon": 2162,
      "repose": 2163,
      "travailler": 2164,
      "profitant": 2165,
      "boite": 2166,
      "baskette": 2167,
      "police": 2168,
      "nageant": 2169,
      "coloree": 2170,
      "vendre": 2171,
      "dirige": 2172,
      "effectue": 2173,
      "bordee": 2174,
      "scooter": 2175,
      "trampoline": 2176,
      "sieste": 2177,
      "rangee": 2178,
      "ceremonie": 2179,
      "karate": 2180,
      "cit": 2181,
      "fest": 2182,
      "pale": 2183,
      "voir": 2184,
      "##ia": 2185,
      "##mar": 2186,
      "##xo": 2187,
      "##itent": 2188,
      "semblent": 2189,
      "facon": 2190,
      "saxo": 2191,
      "arrete": 2192,
      "##ifique": 2193,
      "balcon": 2194,
      "balustr": 2195,
      "bad": 2196,
      "batteur": 2197,
      "escaliers": 2198,
      "poussiere": 2199,
      "echaf": 2200,
      "produit": 2201,
      "jamb": 2202,
      "jambe": 2203,
      "volleyball": 2204,
      "promenent": 2205,
      "participant": 2206,
      "epaule": 2207,
      "refle": 2208,
      "pietons": 2209,
      "fumant": 2210,
      "ruisseau": 2211,
      "balustrade": 2212,
      "echafaud": 2213,
      "fres": 2214,
      "nouve": 2215,
      "res": 2216,
      "rient": 2217,
      "soit": 2218,
      "##pant": 2219,
      "##ork": 2220,
      "##itue": 2221,
      "trac": 2222,
      "gril": 2223,
      "parach": 2224,
      "roulettes": 2225,
      "##ager": 2226,
      "##ress": 2227,
      "##ateaux": 2228,
      "##rob": 2229,
      "plat": 2230,
      "##ules": 2231,
      "nez": 2232,
      "hauts": 2233,
      "bouc": 2234,
      "solitaire": 2235,
      "soiree": 2236,
      "entree": 2237,
      "##cks": 2238,
      "nuage": 2239,
      "motifs": 2240,
      "entouree": 2241,
      "nettoie": 2242,
      "##ivement": 2243,
      "attraction": 2244,
      "campagne": 2245,
      "examine": 2246,
      "nettoyant": 2247,
      "gymnase": 2248,
      "tissu": 2249,
      "girls": 2250,
      "endormi": 2251,
      "tetes": 2252,
      "grimp": 2253,
      "aire": 2254,
      "pain": 2255,
      "riant": 2256,
      "vin": 2257,
      "##hous": 2258,
      "uns": 2259,
      "##ouette": 2260,
      "##chete": 2261,
      "sept": 2262,
      "roue": 2263,
      "roux": 2264,
      "##illard": 2265,
      "brosse": 2266,
      "eaux": 2267,
      "chemises": 2268,
      "dessous": 2269,
      "enthous": 2270,
      "##boy": 2271,
      "couper": 2272,
      "cadre": 2273,
      "magaz": 2274,
      "##aisse": 2275,
      "box": 2276,
      "charge": 2277,
      "voile": 2278,
      "voici": 2279,
      "descendent": 2280,
      "flott": 2281,
      "colorees": 2282,
      "doigts": 2283,
      "lumiere": 2284,
      "lumieres": 2285,
      "gardien": 2286,
      "bondee": 2287,
      "paille": 2288,
      "escaladant": 2289,
      "gobe": 2290,
      "ident": 2291,
      "poubelle": 2292,
      "festiv": 2293,
      "ces": 2294,
      "ol": 2295,
      "##ail": 2296,
      "##uer": 2297,
      "##cer": 2298,
      "##og": 2299,
      "##lers": 2300,
      "##erte": 2301,
      "##mment": 2302,
      "roulent": 2303,
      "facade": 2304,
      "##osant": 2305,
      "##assant": 2306,
      "coul": 2307,
      "balaie": 2308,
      "ecole": 2309,
      "mettant": 2310,
      "pantalons": 2311,
      "pieton": 2312,
      "utilisent": 2313,
      "equipement": 2314,
      "artic": 2315,
      "docu": 2316,
      "rassemb": 2317,
      "moment": 2318,
      "indien": 2319,
      "glissant": 2320,
      "cowboy": 2321,
      "gymnaste": 2322,
      "participent": 2323,
      "certains": 2324,
      "militaire": 2325,
      "soldats": 2326,
      "navig": 2327,
      "gonflable": 2328,
      "jambes": 2329,
      "gam": 2330,
      "imm": 2331,
      "mout": 2332,
      "tur": 2333,
      "york": 2334,
      "##dit": 2335,
      "##gle": 2336,
      "dej": 2337,
      "##tement": 2338,
      "##inette": 2339,
      "##ets": 2340,
      "laver": 2341,
      "##aines": 2342,
      "marteau": 2343,
      "prati": 2344,
      "arme": 2345,
      "##ables": 2346,
      "brand": 2347,
      "marchandis": 2348,
      "plaque": 2349,
      "tex": 2350,
      "new": 2351,
      "montent": 2352,
      "alpin": 2353,
      "sty": 2354,
      "jetee": 2355,
      "coupant": 2356,
      "haute": 2357,
      "hautes": 2358,
      "chevau": 2359,
      "##rait": 2360,
      "acrob": 2361,
      "peignant": 2362,
      "shorts": 2363,
      "manteaux": 2364,
      "americains": 2365,
      "figures": 2366,
      "lancant": 2367,
      "lanceur": 2368,
      "moust": 2369,
      "pompier": 2370,
      "observe": 2371,
      "randonneur": 2372,
      "randonneurs": 2373,
      "adverse": 2374,
      "ecoutant": 2375,
      "eloigne": 2376,
      "type": 2377,
      "urbain": 2378,
      "guitariste": 2379,
      "obstacle": 2380,
      "canoe": 2381,
      "fresque": 2382,
      "lang": 2383,
      "linge": 2384,
      "nique": 2385,
      "pout": 2386,
      "ras": 2387,
      "tond": 2388,
      "voy": 2389,
      "vache": 2390,
      "##zz": 2391,
      "##ok": 2392,
      "##sant": 2393,
      "##mpe": 2394,
      "##way": 2395,
      "etang": 2396,
      "chiot": 2397,
      "quad": 2398,
      "##illon": 2399,
      "queue": 2400,
      "verd": 2401,
      "travaux": 2402,
      "ecoss": 2403,
      "sourire": 2404,
      "appuie": 2405,
      "##isses": 2406,
      "parcours": 2407,
      "##ack": 2408,
      "position": 2409,
      "surface": 2410,
      "americaine": 2411,
      "ramb": 2412,
      "profite": 2413,
      "##rib": 2414,
      "livres": 2415,
      "monde": 2416,
      "tabour": 2417,
      "loc": 2418,
      "dist": 2419,
      "oiseaux": 2420,
      "animaux": 2421,
      "rug": 2422,
      "detend": 2423,
      "reparer": 2424,
      "bagages": 2425,
      "supermar": 2426,
      "outils": 2427,
      "traditionnels": 2428,
      "savour": 2429,
      "ruban": 2430,
      "applaud": 2431,
      "nouveau": 2432,
      "festival": 2433,
      "articles": 2434,
      "rassembles": 2435,
      "supermarche": 2436,
      "buis": 2437,
      "diner": 2438,
      "hu": 2439,
      "mord": 2440,
      "pati": 2441,
      "toute": 2442,
      "##ric": 2443,
      "##uise": 2444,
      "##her": 2445,
      "##anger": 2446,
      "##ator": 2447,
      "##mbour": 2448,
      "arre": 2449,
      "arret": 2450,
      "##veur": 2451,
      "##asser": 2452,
      "plateau": 2453,
      "##ives": 2454,
      "montant": 2455,
      "appar": 2456,
      "adm": 2457,
      "##ssee": 2458,
      "pret": 2459,
      "peau": 2460,
      "telephon": 2461,
      "publique": 2462,
      "chantent": 2463,
      "perche": 2464,
      "ordures": 2465,
      "comment": 2466,
      "embrasse": 2467,
      "blouse": 2468,
      "tatouage": 2469,
      "souleve": 2470,
      "athlete": 2471,
      "heureux": 2472,
      "offic": 2473,
      "circulation": 2474,
      "tentent": 2475,
      "saxophone": 2476,
      "couloir": 2477,
      "dejeu": 2478,
      "brandit": 2479,
      "langue": 2480,
      "amb": 2481,
      "cra": 2482,
      "jap": 2483,
      "men": 2484,
      "##arge": 2485,
      "grat": 2486,
      "chez": 2487,
      "troisieme": 2488,
      "couvre": 2489,
      "atta": 2490,
      "monticule": 2491,
      "ami": 2492,
      "video": 2493,
      "##uies": 2494,
      "salop": 2495,
      "salto": 2496,
      "magn": 2497,
      "pian": 2498,
      "tape": 2499,
      "frappant": 2500,
      "decoup": 2501,
      "patine": 2502,
      "parapluies": 2503,
      "bandan": 2504,
      "##gging": 2505,
      "jogging": 2506,
      "pave": 2507,
      "##terieure": 2508,
      "militaires": 2509,
      "cherche": 2510,
      "passerelle": 2511,
      "luge": 2512,
      "confer": 2513,
      "eclaboussures": 2514,
      "image": 2515,
      "cavalier": 2516,
      "affrontent": 2517,
      "nouv": 2518,
      "reflech": 2519,
      "japon": 2520,
      "bass": 2521,
      "cotes": 2522,
      "cadeau": 2523,
      "dit": 2524,
      "mec": 2525,
      "tu": 2526,
      "vt": 2527,
      "##vier": 2528,
      "##der": 2529,
      "##œur": 2530,
      "##ieux": 2531,
      "tenir": 2532,
      "##osition": 2533,
      "##agon": 2534,
      "##inee": 2535,
      "balai": 2536,
      "ouvert": 2537,
      "front": 2538,
      "##uisent": 2539,
      "chevauche": 2540,
      "cad": 2541,
      "camouf": 2542,
      "anc": 2543,
      "recu": 2544,
      "melan": 2545,
      "rase": 2546,
      "touristes": 2547,
      "agent": 2548,
      "pattes": 2549,
      "chanteur": 2550,
      "motos": 2551,
      "flu": 2552,
      "musicien": 2553,
      "rollers": 2554,
      "rapide": 2555,
      "oreilles": 2556,
      "film": 2557,
      "amusent": 2558,
      "soldat": 2559,
      "carton": 2560,
      "pyj": 2561,
      "salopette": 2562,
      "vtt": 2563,
      "camouflage": 2564,
      "cel": 2565,
      "meu": 2566,
      "murs": 2567,
      "tentant": 2568,
      "##aient": 2569,
      "##co": 2570,
      "##cent": 2571,
      "##cule": 2572,
      "##mand": 2573,
      "##ymp": 2574,
      "danser": 2575,
      "##str": 2576,
      "arene": 2577,
      "##illent": 2578,
      "##quent": 2579,
      "verres": 2580,
      "couverte": 2581,
      "chambre": 2582,
      "orig": 2583,
      "ouvre": 2584,
      "##estation": 2585,
      "soft": 2586,
      "rayures": 2587,
      "clavier": 2588,
      "rame": 2589,
      "feuille": 2590,
      "serre": 2591,
      "eleves": 2592,
      "ordinateurs": 2593,
      "foncee": 2594,
      "differents": 2595,
      "serviette": 2596,
      "deguise": 2597,
      "amusant": 2598,
      "agenouille": 2599,
      "install": 2600,
      "appuye": 2601,
      "flaque": 2602,
      "atteindre": 2603,
      "siege": 2604,
      "attentivement": 2605,
      "humide": 2606,
      "alimentaire": 2607,
      "joyeusement": 2608,
      "tracteur": 2609,
      "rambarde": 2610,
      "piano": 2611,
      "pyjama": 2612,
      "softball": 2613,
      "boire": 2614,
      "dr": 2615,
      "huit": 2616,
      "mini": 2617,
      "radeau": 2618,
      "us": 2619,
      "##uent": 2620,
      "##dium": 2621,
      "danseuse": 2622,
      "deserte": 2623,
      "##sses": 2624,
      "tromp": 2625,
      "assiette": 2626,
      "##ict": 2627,
      "##oles": 2628,
      "pourch": 2629,
      "##ageant": 2630,
      "podium": 2631,
      "atter": 2632,
      "skis": 2633,
      "mettre": 2634,
      "escalator": 2635,
      "canard": 2636,
      "ann": 2637,
      "toile": 2638,
      "surfant": 2639,
      "boivent": 2640,
      "##alement": 2641,
      "chaussettes": 2642,
      "descendre": 2643,
      "eclaire": 2644,
      "eclairee": 2645,
      "legere": 2646,
      "expose": 2647,
      "exposition": 2648,
      "pancartes": 2649,
      "rassemblement": 2650,
      "aerop": 2651,
      "professionnel": 2652,
      "employe": 2653,
      "employes": 2654,
      "conduisant": 2655,
      "footballeurs": 2656,
      "dormant": 2657,
      "transportant": 2658,
      "talons": 2659,
      "commercial": 2660,
      "argente": 2661,
      "##vision": 2662,
      "parachute": 2663,
      "tabouret": 2664,
      "rugby": 2665,
      "bandana": 2666,
      "conference": 2667,
      "recuper": 2668,
      "bm": 2669,
      "em": 2670,
      "hall": 2671,
      "min": 2672,
      "pige": 2673,
      "sil": 2674,
      "sert": 2675,
      "##ris": 2676,
      "##ipe": 2677,
      "##equ": 2678,
      "##cteur": 2679,
      "##pit": 2680,
      "##ze": 2681,
      "dech": 2682,
      "dela": 2683,
      "##oustique": 2684,
      "enle": 2685,
      "##ssion": 2686,
      "##uste": 2687,
      "##icules": 2688,
      "##osque": 2689,
      "rock": 2690,
      "coudre": 2691,
      "present": 2692,
      "balade": 2693,
      "balles": 2694,
      "##ayant": 2695,
      "trottinette": 2696,
      "herbes": 2697,
      "##rac": 2698,
      "boug": 2699,
      "acoustique": 2700,
      "repare": 2701,
      "##heque": 2702,
      "chaussee": 2703,
      "club": 2704,
      "##ides": 2705,
      "tambour": 2706,
      "dore": 2707,
      "decore": 2708,
      "camionnette": 2709,
      "ceint": 2710,
      "glaces": 2711,
      "publicite": 2712,
      "jupes": 2713,
      "fermes": 2714,
      "participe": 2715,
      "envir": 2716,
      "allemand": 2717,
      "allong": 2718,
      "professionnelle": 2719,
      "incl": 2720,
      "natation": 2721,
      "footballeur": 2722,
      "appretant": 2723,
      "gamin": 2724,
      "chevauchant": 2725,
      "di": 2726,
      "por": 2727,
      "val": 2728,
      "vives": 2729,
      "##aille": 2730,
      "##iments": 2731,
      "##pte": 2732,
      "##des": 2733,
      "##bles": 2734,
      "##gue": 2735,
      "##estant": 2736,
      "##enne": 2737,
      "##read": 2738,
      "femin": 2739,
      "tran": 2740,
      "grad": 2741,
      "rel": 2742,
      "coequ": 2743,
      "garage": 2744,
      "sapin": 2745,
      "##ceaux": 2746,
      "##agn": 2747,
      "##agers": 2748,
      "roche": 2749,
      "brillant": 2750,
      "##resse": 2751,
      "couver": 2752,
      "grandes": 2753,
      "foin": 2754,
      "monter": 2755,
      "ped": 2756,
      "cartes": 2757,
      "color": 2758,
      "##oupes": 2759,
      "nourr": 2760,
      "visages": 2761,
      "profitent": 2762,
      "crois": 2763,
      "percu": 2764,
      "creus": 2765,
      "discuter": 2766,
      "tirer": 2767,
      "bib": 2768,
      "mouille": 2769,
      "expl": 2770,
      "poissons": 2771,
      "trouvent": 2772,
      "beret": 2773,
      "##istique": 2774,
      "certaines": 2775,
      "blocs": 2776,
      "##iblement": 2777,
      "embrassant": 2778,
      "ressemble": 2779,
      "etranger": 2780,
      "corpul": 2781,
      "harn": 2782,
      "jolie": 2783,
      "rebord": 2784,
      "blouson": 2785,
      "basketteur": 2786,
      "echafaudage": 2787,
      "poutre": 2788,
      "buissons": 2789,
      "ambulant": 2790,
      "aeroport": 2791,
      "gradins": 2792,
      "coequip": 2793,
      "act": 2794,
      "achete": 2795,
      "bateaux": 2796,
      "cat": 2797,
      "dread": 2798,
      "fus": 2799,
      "gui": 2800,
      "ki": 2801,
      "mal": 2802,
      "oper": 2803,
      "pile": 2804,
      "rire": 2805,
      "sy": 2806,
      "sar": 2807,
      "situe": 2808,
      "##amb": 2809,
      "##tiste": 2810,
      "##utent": 2811,
      "##ele": 2812,
      "##cun": 2813,
      "##celle": 2814,
      "##pir": 2815,
      "##ke": 2816,
      "##œu": 2817,
      "##teaux": 2818,
      "##aut": 2819,
      "chaine": 2820,
      "choses": 2821,
      "quit": 2822,
      "marine": 2823,
      "##andissant": 2824,
      "sais": 2825,
      "arros": 2826,
      "auto": 2827,
      "##endie": 2828,
      "brandissant": 2829,
      "##asses": 2830,
      "poil": 2831,
      "pointe": 2832,
      "plaf": 2833,
      "casquettes": 2834,
      "aliments": 2835,
      "adosse": 2836,
      "##locks": 2837,
      "battant": 2838,
      "bancs": 2839,
      "entrep": 2840,
      "compose": 2841,
      "agite": 2842,
      "cele": 2843,
      "danseurs": 2844,
      "affaires": 2845,
      "tirent": 2846,
      "produ": 2847,
      "bij": 2848,
      "bande": 2849,
      "corne": 2850,
      "jockey": 2851,
      "bouteilles": 2852,
      "berger": 2853,
      "nettoyer": 2854,
      "africains": 2855,
      "calin": 2856,
      "multicolores": 2857,
      "aidant": 2858,
      "automne": 2859,
      "inform": 2860,
      "manifestation": 2861,
      "manifestant": 2862,
      "individus": 2863,
      "attractions": 2864,
      "enthousi": 2865,
      "gobelet": 2866,
      "identiques": 2867,
      "olymp": 2868,
      "marchandises": 2869,
      "verdoy": 2870,
      "nouvelle": 2871,
      "fluo": 2872,
      "allonges": 2873,
      "dreadlocks": 2874,
      "aqu": 2875,
      "bre": 2876,
      "fan": 2877,
      "heur": 2878,
      "lec": 2879,
      "op": 2880,
      "poupe": 2881,
      "vous": 2882,
      "vict": 2883,
      "wagon": 2884,
      "##cul": 2885,
      "##pent": 2886,
      "##urg": 2887,
      "danseuses": 2888,
      "etal": 2889,
      "##ates": 2890,
      "pris": 2891,
      "##ash": 2892,
      "portrait": 2893,
      "brill": 2894,
      "traineau": 2895,
      "chame": 2896,
      "chacun": 2897,
      "planches": 2898,
      "appe": 2899,
      "ecar": 2900,
      "frais": 2901,
      "cones": 2902,
      "jeans": 2903,
      "passagers": 2904,
      "carte": 2905,
      "pleure": 2906,
      "ange": 2907,
      "recip": 2908,
      "utiliser": 2909,
      "artis": 2910,
      "travailleurs": 2911,
      "decol": 2912,
      "publicitaire": 2913,
      "discours": 2914,
      "chaussure": 2915,
      "commence": 2916,
      "indienne": 2917,
      "vitre": 2918,
      "vitesse": 2919,
      "bander": 2920,
      "fauteuils": 2921,
      "circuit": 2922,
      "toucher": 2923,
      "droit": 2924,
      "cuisinant": 2925,
      "chefs": 2926,
      "oreille": 2927,
      "adversaire": 2928,
      "medec": 2929,
      "motards": 2930,
      "tomber": 2931,
      "incendie": 2932,
      "ressemblant": 2933,
      "sieges": 2934,
      "dormir": 2935,
      "retourne": 2936,
      "gazon": 2937,
      "alpiniste": 2938,
      "distrib": 2939,
      "magnifique": 2940,
      "bmx": 2941,
      "kiosque": 2942,
      "plafond": 2943,
      "recipient": 2944,
      "action": 2945,
      "basse": 2946,
      "dur": 2947,
      "din": 2948,
      "div": 2949,
      "eur": 2950,
      "form": 2951,
      "gant": 2952,
      "gal": 2953,
      "pate": 2954,
      "rond": 2955,
      "rang": 2956,
      "sout": 2957,
      "vent": 2958,
      "vaste": 2959,
      "village": 2960,
      "##iquant": 2961,
      "##do": 2962,
      "##miere": 2963,
      "##jo": 2964,
      "ded": 2965,
      "lamp": 2966,
      "lave": 2967,
      "levr": 2968,
      "##ontrac": 2969,
      "colon": 2970,
      "##icale": 2971,
      "arr": 2972,
      "arc": 2973,
      "portables": 2974,
      "verif": 2975,
      "##iges": 2976,
      "##ignee": 2977,
      "poin": 2978,
      "poit": 2979,
      "##ablement": 2980,
      "dessin": 2981,
      "dessine": 2982,
      "montrent": 2983,
      "exerc": 2984,
      "scient": 2985,
      "bamb": 2986,
      "baisse": 2987,
      "prets": 2988,
      "##isser": 2989,
      "enseigne": 2990,
      "television": 2991,
      "soc": 2992,
      "chaude": 2993,
      "##ident": 2994,
      "artif": 2995,
      "tax": 2996,
      "chanter": 2997,
      "cray": 2998,
      "agitant": 2999,
      "decoupe": 3000,
      "decontrac": 3001,
      "eleph": 3002,
      "basketball": 3003,
      "creuse": 3004,
      "preparer": 3005,
      "sup": 3006,
      "combinaisons": 3007,
      "sortant": 3008,
      "metalliques": 3009,
      "vehicules": 3010,
      "cuisinier": 3011,
      "transp": 3012,
      "sandw": 3013,
      "forest": 3014,
      "embrassent": 3015,
      "aider": 3016,
      "acheter": 3017,
      "patinoire": 3018,
      "installe": 3019,
      "urbaine": 3020,
      "deplace": 3021,
      "souffle": 3022,
      "jongle": 3023,
      "entrainement": 3024,
      "approche": 3025,
      "##ression": 3026,
      "magazine": 3027,
      "flottant": 3028,
      "dejeuner": 3029,
      "melange": 3030,
      "legerement": 3031,
      "recuperer": 3032,
      "silh": 3033,
      "##pital": 3034,
      "harnais": 3035,
      "artisan": 3036,
      "emm": 3037,
      "ela": 3038,
      "epee": 3039,
      "impl": 3040,
      "jun": 3041,
      "kil": 3042,
      "nagent": 3043,
      "pai": 3044,
      "tec": 3045,
      "vaisse": 3046,
      "##aw": 3047,
      "##iettes": 3048,
      "##zer": 3049,
      "##oient": 3050,
      "##liot": 3051,
      "dev": 3052,
      "##once": 3053,
      "##lee": 3054,
      "enla": 3055,
      "##isme": 3056,
      "hoop": 3057,
      "##auc": 3058,
      "chans": 3059,
      "lass": 3060,
      "##nement": 3061,
      "tram": 3062,
      "trop": 3063,
      "groupes": 3064,
      "##ots": 3065,
      "prise": 3066,
      "fab": 3067,
      "sho": 3068,
      "portes": 3069,
      "##quoise": 3070,
      "##elop": 3071,
      "##isee": 3072,
      "##role": 3073,
      "##ames": 3074,
      "baller": 3075,
      "##ongs": 3076,
      "ecol": 3077,
      "exc": 3078,
      "exper": 3079,
      "alignes": 3080,
      "amuse": 3081,
      "boise": 3082,
      "verse": 3083,
      "manip": 3084,
      "##isson": 3085,
      "##rale": 3086,
      "peindre": 3087,
      "vetetiste": 3088,
      "anne": 3089,
      "##vrant": 3090,
      "membre": 3091,
      "entret": 3092,
      "glac": 3093,
      "commun": 3094,
      "crete": 3095,
      "papa": 3096,
      "moteur": 3097,
      "ferme": 3098,
      "entraineur": 3099,
      "filets": 3100,
      "imper": 3101,
      "imposant": 3102,
      "obsc": 3103,
      "envoie": 3104,
      "observent": 3105,
      "deguis": 3106,
      "camping": 3107,
      "gravier": 3108,
      "encour": 3109,
      "achetant": 3110,
      "automatique": 3111,
      "##ension": 3112,
      "etrange": 3113,
      "reposent": 3114,
      "partiellement": 3115,
      "photographie": 3116,
      "cartons": 3117,
      "musee": 3118,
      "froid": 3119,
      "appreciant": 3120,
      "branche": 3121,
      "pneu": 3122,
      "ajuste": 3123,
      "palet": 3124,
      "grimpant": 3125,
      "documents": 3126,
      "hula": 3127,
      "telephonique": 3128,
      "reflechissant": 3129,
      "rapidement": 3130,
      "origine": 3131,
      "trompette": 3132,
      "bibliot": 3133,
      "jungle": 3134,
      "paix": 3135,
      "vaisselle": 3136,
      "bibliotheque": 3137,
      "ate": 3138,
      "billard": 3139,
      "dresse": 3140,
      "eb": 3141,
      "fix": 3142,
      "large": 3143,
      "naut": 3144,
      "tors": 3145,
      "tub": 3146,
      "vente": 3147,
      "##ulaire": 3148,
      "##pose": 3149,
      "##niere": 3150,
      "##naval": 3151,
      "##liere": 3152,
      "##enir": 3153,
      "##anter": 3154,
      "##arre": 3155,
      "hori": 3156,
      "hopital": 3157,
      "lavant": 3158,
      "lampe": 3159,
      "##irant": 3160,
      "##neuse": 3161,
      "levant": 3162,
      "##ersection": 3163,
      "##atie": 3164,
      "##ature": 3165,
      "grille": 3166,
      "griller": 3167,
      "##quel": 3168,
      "assort": 3169,
      "faite": 3170,
      "faiblement": 3171,
      "brique": 3172,
      "genou": 3173,
      "chaque": 3174,
      "post": 3175,
      "maman": 3176,
      "plancher": 3177,
      "term": 3178,
      "foire": 3179,
      "cone": 3180,
      "battre": 3181,
      "boueuse": 3182,
      "escrime": 3183,
      "pouce": 3184,
      "##ings": 3185,
      "caresse": 3186,
      "carnaval": 3187,
      "vetement": 3188,
      "artistes": 3189,
      "microphone": 3190,
      "tourn": 3191,
      "chanteuse": 3192,
      "crick": 3193,
      "serrant": 3194,
      "maisons": 3195,
      "concentre": 3196,
      "flotte": 3197,
      "panneaux": 3198,
      "journaux": 3199,
      "plongeant": 3200,
      "envelop": 3201,
      "##iversaire": 3202,
      "accroupie": 3203,
      "grimace": 3204,
      "africaine": 3205,
      "cabane": 3206,
      "bague": 3207,
      "agenouillee": 3208,
      "aerienne": 3209,
      "geant": 3210,
      "coiffure": 3211,
      "lutte": 3212,
      "##ibles": 3213,
      "athletes": 3214,
      "intersection": 3215,
      "maquille": 3216,
      "maquillage": 3217,
      "appretent": 3218,
      "corps": 3219,
      "occupe": 3220,
      "inspect": 3221,
      "inspecte": 3222,
      "moustache": 3223,
      "japonais": 3224,
      "bassin": 3225,
      "tube": 3226,
      "ancien": 3227,
      "anniversaire": 3228,
      "operation": 3229,
      "bijoux": 3230,
      "poitrine": 3231,
      "support": 3232,
      "sandwich": 3233,
      "chanson": 3234,
      "lasso": 3235,
      "tramway": 3236,
      "atelier": 3237,
      "nautique": 3238,
      "torses": 3239,
      "horiz": 3240,
      "cricket": 3241,
      "bles": 3242,
      "cœur": 3243,
      "fort": 3244,
      "faux": 3245,
      "lisent": 3246,
      "mort": 3247,
      "mun": 3248,
      "mix": 3249,
      "nous": 3250,
      "nac": 3251,
      "ours": 3252,
      "poule": 3253,
      "ste": 3254,
      "tongs": 3255,
      "##ieuse": 3256,
      "##ument": 3257,
      "##form": 3258,
      "##miers": 3259,
      "##golf": 3260,
      "univers": 3261,
      "##oue": 3262,
      "##lex": 3263,
      "envers": 3264,
      "##isation": 3265,
      "##tel": 3266,
      "##teurs": 3267,
      "chateau": 3268,
      "tru": 3269,
      "levent": 3270,
      "audit": 3271,
      "##ielle": 3272,
      "asse": 3273,
      "parents": 3274,
      "roues": 3275,
      "##asure": 3276,
      "##ical": 3277,
      "dune": 3278,
      "pours": 3279,
      "bro": 3280,
      "brouette": 3281,
      "beach": 3282,
      "montgolf": 3283,
      "exec": 3284,
      "aller": 3285,
      "boisee": 3286,
      "barres": 3287,
      "baign": 3288,
      "spr": 3289,
      "bouquet": 3290,
      "caisses": 3291,
      "##lants": 3292,
      "pein": 3293,
      "pizz": 3294,
      "bonb": 3295,
      "partout": 3296,
      "accomp": 3297,
      "equipements": 3298,
      "##ids": 3299,
      "fonction": 3300,
      "contreb": 3301,
      "paniers": 3302,
      "##rivant": 3303,
      "patau": 3304,
      "attrapant": 3305,
      "eleg": 3306,
      "crep": 3307,
      "papillon": 3308,
      "mode": 3309,
      "blondes": 3310,
      "embrasure": 3311,
      "protege": 3312,
      "tatouages": 3313,
      "ombrelle": 3314,
      "troncon": 3315,
      "cabine": 3316,
      "cerf": 3317,
      "gymnastique": 3318,
      "œuvre": 3319,
      "infir": 3320,
      "reposant": 3321,
      "conducteur": 3322,
      "pecheur": 3323,
      "flanc": 3324,
      "palmiers": 3325,
      "etoff": 3326,
      "boucles": 3327,
      "turb": 3328,
      "voyage": 3329,
      "attaches": 3330,
      "cadd": 3331,
      "relig": 3332,
      "rocheux": 3333,
      "fusil": 3334,
      "break": 3335,
      "heureuse": 3336,
      "victoire": 3337,
      "dedans": 3338,
      "lampad": 3339,
      "nacelle": 3340,
      "benne": 3341,
      "cage": 3342,
      "casse": 3343,
      "dames": 3344,
      "hip": 3345,
      "honne": 3346,
      "mate": 3347,
      "paire": 3348,
      "suit": 3349,
      "sign": 3350,
      "ventre": 3351,
      "wal": 3352,
      "##rie": 3353,
      "##iches": 3354,
      "##ps": 3355,
      "##omb": 3356,
      "##ombre": 3357,
      "##fare": 3358,
      "##ma": 3359,
      "##mite": 3360,
      "##lie": 3361,
      "del": 3362,
      "##ouc": 3363,
      "ethn": 3364,
      "##rette": 3365,
      "##inc": 3366,
      "##auds": 3367,
      "chor": 3368,
      "##chouc": 3369,
      "trib": 3370,
      "red": 3371,
      "##outchouc": 3372,
      "marbre": 3373,
      "parquet": 3374,
      "##uscule": 3375,
      "seaux": 3376,
      "arro": 3377,
      "##ions": 3378,
      "plante": 3379,
      "poteaux": 3380,
      "ecrivant": 3381,
      "extre": 3382,
      "skieurs": 3383,
      "constr": 3384,
      "derby": 3385,
      "scie": 3386,
      "aspir": 3387,
      "metier": 3388,
      "hauteur": 3389,
      "caoutchouc": 3390,
      "##imes": 3391,
      "controle": 3392,
      "toge": 3393,
      "toges": 3394,
      "artistique": 3395,
      "claire": 3396,
      "agric": 3397,
      "camions": 3398,
      "allongees": 3399,
      "monoc": 3400,
      "perd": 3401,
      "voies": 3402,
      "seche": 3403,
      "commen": 3404,
      "creme": 3405,
      "moder": 3406,
      "cloturee": 3407,
      "just": 3408,
      "bonnets": 3409,
      "flute": 3410,
      "defil": 3411,
      "nettoient": 3412,
      "sortie": 3413,
      "liqu": 3414,
      "entrainant": 3415,
      "jaill": 3416,
      "circulant": 3417,
      "vendeurs": 3418,
      "interag": 3419,
      "electron": 3420,
      "examinant": 3421,
      "##quettes": 3422,
      "reparant": 3423,
      "abri": 3424,
      "foraine": 3425,
      "fumee": 3426,
      "ecoutent": 3427,
      "achetent": 3428,
      "eloignant": 3429,
      "coiffe": 3430,
      "##ocol": 3431,
      "receveur": 3432,
      "branches": 3433,
      "arrive": 3434,
      "arrivee": 3435,
      "laverie": 3436,
      "style": 3437,
      "ecossaise": 3438,
      "patio": 3439,
      "arretent": 3440,
      "craie": 3441,
      "usine": 3442,
      "pigeons": 3443,
      "bougies": 3444,
      "nourrisson": 3445,
      "cornem": 3446,
      "fanfare": 3447,
      "oppose": 3448,
      "banderole": 3449,
      "europe": 3450,
      "taxi": 3451,
      "decontractee": 3452,
      "imperme": 3453,
      "deguises": 3454,
      "baignoire": 3455,
      "crepuscule": 3456,
      "honneur": 3457,
      "arrose": 3458,
      "moderne": 3459,
      "ane": 3460,
      "cons": 3461,
      "dor": 3462,
      "el": 3463,
      "fans": 3464,
      "gout": 3465,
      "gol": 3466,
      "geste": 3467,
      "hel": 3468,
      "kites": 3469,
      "lond": 3470,
      "paste": 3471,
      "pist": 3472,
      "sang": 3473,
      "tentes": 3474,
      "##th": 3475,
      "##ca": 3476,
      "##ob": 3477,
      "##ni": 3478,
      "##land": 3479,
      "##bablement": 3480,
      "##urf": 3481,
      "hot": 3482,
      "hotel": 3483,
      "chir": 3484,
      "##ires": 3485,
      "##nequ": 3486,
      "##ssi": 3487,
      "leves": 3488,
      "levres": 3489,
      "##ience": 3490,
      "marquer": 3491,
      "semblant": 3492,
      "region": 3493,
      "arche": 3494,
      "##illere": 3495,
      "bron": 3496,
      "##roite": 3497,
      "orne": 3498,
      "probablement": 3499,
      "dessinant": 3500,
      "exterieure": 3501,
      "frai": 3502,
      "scout": 3503,
      "asie": 3504,
      "manche": 3505,
      "mannequ": 3506,
      "habit": 3507,
      "passants": 3508,
      "campe": 3509,
      "recol": 3510,
      "professe": 3511,
      "violets": 3512,
      "ramasse": 3513,
      "ramassant": 3514,
      "crie": 3515,
      "crane": 3516,
      "agents": 3517,
      "voil": 3518,
      "appareils": 3519,
      "discute": 3520,
      "produisent": 3521,
      "machines": 3522,
      "indiens": 3523,
      "event": 3524,
      "sportif": 3525,
      "bandeau": 3526,
      "penchee": 3527,
      "imprime": 3528,
      "soude": 3529,
      "plongee": 3530,
      "interv": 3531,
      "garde": 3532,
      "gravissant": 3533,
      "allume": 3534,
      "boutique": 3535,
      "donner": 3536,
      "scolaire": 3537,
      "escaladent": 3538,
      "##osses": 3539,
      "embrasser": 3540,
      "cerceau": 3541,
      "renvers": 3542,
      "engin": 3543,
      "froide": 3544,
      "reunissent": 3545,
      "theatre": 3546,
      "pagaie": 3547,
      "individu": 3548,
      "badauds": 3549,
      "immense": 3550,
      "pratiquent": 3551,
      "local": 3552,
      "detendent": 3553,
      "applaudissent": 3554,
      "celui": 3555,
      "delabre": 3556,
      "ceinture": 3557,
      "valise": 3558,
      "feminin": 3559,
      "creusant": 3560,
      "arrosage": 3561,
      "produisant": 3562,
      "poupee": 3563,
      "ecartes": 3564,
      "medecin": 3565,
      "divert": 3566,
      "silhouette": 3567,
      "bonbons": 3568,
      "lampadaire": 3569,
      "monocycle": 3570,
      "liquide": 3571,
      "electronique": 3572,
      "kitesurf": 3573,
      "pistole": 3574,
      "chirurg": 3575,
      "20": 3576,
      "bur": 3577,
      "bille": 3578,
      "bav": 3579,
      "brete": 3580,
      "gestes": 3581,
      "jum": 3582,
      "mi": 3583,
      "pir": 3584,
      "rur": 3585,
      "ring": 3586,
      "sl": 3587,
      "sir": 3588,
      "sim": 3589,
      "œil": 3590,
      "##rure": 3591,
      "##rip": 3592,
      "##cle": 3593,
      "##ceuse": 3594,
      "##don": 3595,
      "##gan": 3596,
      "unique": 3597,
      "##leche": 3598,
      "##lets": 3599,
      "##arni": 3600,
      "##teg": 3601,
      "##uellement": 3602,
      "##rees": 3603,
      "##ind": 3604,
      "##inent": 3605,
      "##auff": 3606,
      "chois": 3607,
      "lequel": 3608,
      "grue": 3609,
      "aussi": 3610,
      "##ards": 3611,
      "marque": 3612,
      "gares": 3613,
      "##ica": 3614,
      "##ices": 3615,
      "##icip": 3616,
      "##atiques": 3617,
      "##ureaux": 3618,
      "brou": 3619,
      "bross": 3620,
      "##assent": 3621,
      "##appe": 3622,
      "couteau": 3623,
      "plumes": 3624,
      "proch": 3625,
      "presente": 3626,
      "integ": 3627,
      "plais": 3628,
      "ill": 3629,
      "##ances": 3630,
      "attente": 3631,
      "frises": 3632,
      "skie": 3633,
      "stud": 3634,
      "asc": 3635,
      "amie": 3636,
      "##adeaux": 3637,
      "veau": 3638,
      "bouee": 3639,
      "boueux": 3640,
      "contenant": 3641,
      "##aces": 3642,
      "partagent": 3643,
      "partageant": 3644,
      "poses": 3645,
      "raquettes": 3646,
      "charrette": 3647,
      "##ignees": 3648,
      "voler": 3649,
      "volent": 3650,
      "tourno": 3651,
      "servant": 3652,
      "baskets": 3653,
      "penchant": 3654,
      "##ake": 3655,
      "fenetres": 3656,
      "entoures": 3657,
      "nageurs": 3658,
      "evier": 3659,
      "ferree": 3660,
      "lib": 3661,
      "cuire": 3662,
      "cuillere": 3663,
      "entrainent": 3664,
      "construisant": 3665,
      "proteger": 3666,
      "cuisiniere": 3667,
      "service": 3668,
      "degarni": 3669,
      "bordeaux": 3670,
      "rapides": 3671,
      "bulle": 3672,
      "apprend": 3673,
      "russes": 3674,
      "egalement": 3675,
      "tombant": 3676,
      "cables": 3677,
      "diverses": 3678,
      "retournant": 3679,
      "collection": 3680,
      "pneus": 3681,
      "etoile": 3682,
      "tricycle": 3683,
      "citrou": 3684,
      "nuageux": 3685,
      "savoure": 3686,
      "atterr": 3687,
      "presentation": 3688,
      "coequipier": 3689,
      "activ": 3690,
      "syn": 3691,
      "celeb": 3692,
      "olympiques": 3693,
      "scientifique": 3694,
      "elephant": 3695,
      "forestier": 3696,
      "techn": 3697,
      "enveloppe": 3698,
      "horizon": 3699,
      "breakd": 3700,
      "chorale": 3701,
      "aspirateur": 3702,
      "impermeable": 3703,
      "professeur": 3704,
      "studio": 3705,
      "bla": 3706,
      "dip": 3707,
      "lett": 3708,
      "lut": 3709,
      "mc": 3710,
      "mau": 3711,
      "mess": 3712,
      "non": 3713,
      "##ton": 3714,
      "##ci": 3715,
      "##pie": 3716,
      "##den": 3717,
      "##mo": 3718,
      "##back": 3719,
      "##gon": 3720,
      "unes": 3721,
      "deamb": 3722,
      "##istre": 3723,
      "surele": 3724,
      "##orps": 3725,
      "laine": 3726,
      "##atr": 3727,
      "grosses": 3728,
      "##iete": 3729,
      "quar": 3730,
      "personn": 3731,
      "##iente": 3732,
      "assiettes": 3733,
      "garee": 3734,
      "rouler": 3735,
      "debris": 3736,
      "armes": 3737,
      "tenu": 3738,
      "##ative": 3739,
      "courte": 3740,
      "##quille": 3741,
      "interieure": 3742,
      "pomme": 3743,
      "tee": 3744,
      "bebes": 3745,
      "ext": 3746,
      "baril": 3747,
      "couples": 3748,
      "mettent": 3749,
      "veg": 3750,
      "premiere": 3751,
      "cape": 3752,
      "cache": 3753,
      "pleurs": 3754,
      "ant": 3755,
      "##ades": 3756,
      "recoit": 3757,
      "partir": 3758,
      "chaud": 3759,
      "mex": 3760,
      "magasins": 3761,
      "taches": 3762,
      "rails": 3763,
      "##issement": 3764,
      "essent": 3765,
      "bains": 3766,
      "monument": 3767,
      "perron": 3768,
      "perru": 3769,
      "perform": 3770,
      "perceuse": 3771,
      "depart": 3772,
      "elev": 3773,
      "command": 3774,
      "discussion": 3775,
      "biz": 3776,
      "suc": 3777,
      "suiv": 3778,
      "tiree": 3779,
      "##graph": 3780,
      "mousse": 3781,
      "retire": 3782,
      "##ption": 3783,
      "soud": 3784,
      "ecrire": 3785,
      "##chets": 3786,
      "espagn": 3787,
      "morceaux": 3788,
      "tatoue": 3789,
      "encombre": 3790,
      "abru": 3791,
      "filme": 3792,
      "cherchant": 3793,
      "escalader": 3794,
      "aident": 3795,
      "sauvage": 3796,
      "orientale": 3797,
      "nature": 3798,
      "mouvements": 3799,
      "œuvres": 3800,
      "œufs": 3801,
      "jetant": 3802,
      "poterie": 3803,
      "pecher": 3804,
      "surveille": 3805,
      "apprecient": 3806,
      "disputent": 3807,
      "reunion": 3808,
      "parasols": 3809,
      "croix": 3810,
      "blouses": 3811,
      "basketteurs": 3812,
      "dirigeant": 3813,
      "magazines": 3814,
      "document": 3815,
      "mouton": 3816,
      "moutons": 3817,
      "acrobatie": 3818,
      "tondeuse": 3819,
      "chiots": 3820,
      "ecossais": 3821,
      "gratte": 3822,
      "environ": 3823,
      "pedal": 3824,
      "manifestants": 3825,
      "brillante": 3826,
      "kilt": 3827,
      "##aucorps": 3828,
      "blesse": 3829,
      "municip": 3830,
      "peints": 3831,
      "patauge": 3832,
      "turban": 3833,
      "caddie": 3834,
      "signal": 3835,
      "commencer": 3836,
      "justaucorps": 3837,
      "cornemuse": 3838,
      "golden": 3839,
      "londres": 3840,
      "fraiche": 3841,
      "bretelles": 3842,
      "diplo": 3843,
      "performance": 3844,
      "bor": 3845,
      "bull": 3846,
      "bureaux": 3847,
      "cur": 3848,
      "cent": 3849,
      "cible": 3850,
      "casser": 3851,
      "dj": 3852,
      "disant": 3853,
      "gor": 3854,
      "gag": 3855,
      "hache": 3856,
      "lignes": 3857,
      "lanter": 3858,
      "moit": 3859,
      "nager": 3860,
      "pul": 3861,
      "pup": 3862,
      "ronde": 3863,
      "sub": 3864,
      "tam": 3865,
      "vest": 3866,
      "yog": 3867,
      "##rol": 3868,
      "##rieres": 3869,
      "##tin": 3870,
      "##oo": 3871,
      "##oids": 3872,
      "##las": 3873,
      "##yer": 3874,
      "##go": 3875,
      "##anes": 3876,
      "##enu": 3877,
      "##eria": 3878,
      "##ecteur": 3879,
      "##uel": 3880,
      "etire": 3881,
      "etroite": 3882,
      "##reg": 3883,
      "##iter": 3884,
      "tri": 3885,
      "##stes": 3886,
      "##att": 3887,
      "grill": 3888,
      "rela": 3889,
      "parade": 3890,
      "enfla": 3891,
      "shop": 3892,
      "##atif": 3893,
      "courbe": 3894,
      "##osa": 3895,
      "##osp": 3896,
      "##igre": 3897,
      "presque": 3898,
      "pommes": 3899,
      "poignee": 3900,
      "##ifiques": 3901,
      "balayant": 3902,
      "ecume": 3903,
      "entrer": 3904,
      "franc": 3905,
      "frere": 3906,
      "asper": 3907,
      "coups": 3908,
      "herbeux": 3909,
      "boules": 3910,
      "sales": 3911,
      "repet": 3912,
      "caress": 3913,
      "canot": 3914,
      "bordure": 3915,
      "sod": 3916,
      "sombres": 3917,
      "##acles": 3918,
      "accident": 3919,
      "rayes": 3920,
      "tom": 3921,
      "doree": 3922,
      "bombe": 3923,
      "tourner": 3924,
      "nuages": 3925,
      "croise": 3926,
      "etreignent": 3927,
      "pieces": 3928,
      "papiers": 3929,
      "nageur": 3930,
      "defense": 3931,
      "eclairage": 3932,
      "carrelage": 3933,
      "glacee": 3934,
      "glisser": 3935,
      "couvertures": 3936,
      "essayer": 3937,
      "hockeyeurs": 3938,
      "disque": 3939,
      "john": 3940,
      "plongeoir": 3941,
      "remet": 3942,
      "gravit": 3943,
      "allure": 3944,
      "surpoids": 3945,
      "sculp": 3946,
      "bloc": 3947,
      "bloque": 3948,
      "athlet": 3949,
      "tombee": 3950,
      "garees": 3951,
      "fourrure": 3952,
      "renif": 3953,
      "types": 3954,
      "banjo": 3955,
      "oriental": 3956,
      "engages": 3957,
      "attachee": 3958,
      "eclaboussant": 3959,
      "images": 3960,
      "obstacles": 3961,
      "attention": 3962,
      "rebond": 3963,
      "argile": 3964,
      "badge": 3965,
      "armee": 3966,
      "texas": 3967,
      "stylo": 3968,
      "patient": 3969,
      "patineurs": 3970,
      "pourchasse": 3971,
      "enleve": 3972,
      "porche": 3973,
      "tranquille": 3974,
      "croises": 3975,
      "corpulent": 3976,
      "entrepr": 3977,
      "nouvellement": 3978,
      "leche": 3979,
      "galerie": 3980,
      "societe": 3981,
      "entretien": 3982,
      "termine": 3983,
      "baguettes": 3984,
      "accompagne": 3985,
      "contrebas": 3986,
      "tronconneuse": 3987,
      "matelas": 3988,
      "dorment": 3989,
      "mannequin": 3990,
      "201": 3991,
      "jumelles": 3992,
      "illum": 3993,
      "breakdance": 3994,
      "lettres": 3995,
      "abrupte": 3996,
      "borne": 3997,
      "moitie": 3998,
      "pulver": 3999,
      "yoga": 4000,
      "ailes": 4001,
      "cy": 4002,
      "cross": 4003,
      "far": 4004,
      "fati": 4005,
      "guer": 4006,
      "haie": 4007,
      "hist": 4008,
      "haw": 4009,
      "pit": 4010,
      "pend": 4011,
      "reste": 4012,
      "rive": 4013,
      "vu": 4014,
      "vac": 4015,
      "##rons": 4016,
      "##ase": 4017,
      "##iz": 4018,
      "##iandis": 4019,
      "##ep": 4020,
      "##liers": 4021,
      "##gre": 4022,
      "##gues": 4023,
      "##anch": 4024,
      "dechets": 4025,
      "##urer": 4026,
      "##uration": 4027,
      "##lette": 4028,
      "enreg": 4029,
      "##ecs": 4030,
      "chasse": 4031,
      "chore": 4032,
      "lav": 4033,
      "##chette": 4034,
      "##illeux": 4035,
      "##iev": 4036,
      "##iellement": 4037,
      "joueuses": 4038,
      "coca": 4039,
      "##asme": 4040,
      "##icerie": 4041,
      "porter": 4042,
      "rob": 4043,
      "brass": 4044,
      "couss": 4045,
      "plant": 4046,
      "plats": 4047,
      "pliante": 4048,
      "plup": 4049,
      "organ": 4050,
      "phase": 4051,
      "##tere": 4052,
      "food": 4053,
      "friandis": 4054,
      "allant": 4055,
      "alco": 4056,
      "alignees": 4057,
      "##verts": 4058,
      "barrieres": 4059,
      "bac": 4060,
      "acier": 4061,
      "peignent": 4062,
      "##ubles": 4063,
      "collants": 4064,
      "canal": 4065,
      "tresses": 4066,
      "partition": 4067,
      "rayon": 4068,
      "poste": 4069,
      "nombreuse": 4070,
      "tachete": 4071,
      "class": 4072,
      "dom": 4073,
      "dog": 4074,
      "doss": 4075,
      "rament": 4076,
      "ramp": 4077,
      "raft": 4078,
      "profond": 4079,
      "##onnement": 4080,
      "##usement": 4081,
      "ramant": 4082,
      "serie": 4083,
      "epaisse": 4084,
      "epicerie": 4085,
      "remplis": 4086,
      "buff": 4087,
      "violettes": 4088,
      "echauff": 4089,
      "echecs": 4090,
      "embar": 4091,
      "adolescente": 4092,
      "essaye": 4093,
      "sortir": 4094,
      "construire": 4095,
      "impression": 4096,
      "masc": 4097,
      "etudie": 4098,
      "circule": 4099,
      "plongeur": 4100,
      "accroupit": 4101,
      "interess": 4102,
      "observant": 4103,
      "rapp": 4104,
      "rappe": 4105,
      "grimaces": 4106,
      "violoncelle": 4107,
      "immeubles": 4108,
      "mediev": 4109,
      "suspendue": 4110,
      "encl": 4111,
      "calme": 4112,
      "paquet": 4113,
      "traditionnelle": 4114,
      "fourgon": 4115,
      "geante": 4116,
      "appuyant": 4117,
      "tisser": 4118,
      "reposer": 4119,
      "deplacant": 4120,
      "deplacent": 4121,
      "pechant": 4122,
      "bols": 4123,
      "fleurie": 4124,
      "girl": 4125,
      "intense": 4126,
      "cavaliers": 4127,
      "reception": 4128,
      "combattant": 4129,
      "affrontant": 4130,
      "jonglant": 4131,
      "directions": 4132,
      "ajust": 4133,
      "smok": 4134,
      "smash": 4135,
      "##iastes": 4136,
      "poussiereux": 4137,
      "nuageuse": 4138,
      "enthousiastes": 4139,
      "chargement": 4140,
      "gobelets": 4141,
      "indiennes": 4142,
      "navigue": 4143,
      "turquoise": 4144,
      "pratiquant": 4145,
      "decouper": 4146,
      "meubles": 4147,
      "installant": 4148,
      "percussion": 4149,
      "saisit": 4150,
      "enthousiaste": 4151,
      "enthousiasme": 4152,
      "chameaux": 4153,
      "decolle": 4154,
      "levriers": 4155,
      "colonnes": 4156,
      "baissee": 4157,
      "artific": 4158,
      "crayon": 4159,
      "ballerine": 4160,
      "ecoliers": 4161,
      "ebrou": 4162,
      "##lexe": 4163,
      "poursuit": 4164,
      "montgolfiere": 4165,
      "etoffe": 4166,
      "hipp": 4167,
      "scouts": 4168,
      "voilier": 4169,
      "simil": 4170,
      "integrale": 4171,
      "tournoi": 4172,
      "essentiellement": 4173,
      "bizarre": 4174,
      "municipal": 4175,
      "gorge": 4176,
      "2012": 4177,
      "choregraph": 4178,
      "plupart": 4179,
      "alcool": 4180,
      "rafting": 4181,
      "celle": 4182,
      "ej": 4183,
      "fant": 4184,
      "gou": 4185,
      "gateaux": 4186,
      "ici": 4187,
      "lou": 4188,
      "lux": 4189,
      "lig": 4190,
      "mut": 4191,
      "nœ": 4192,
      "nive": 4193,
      "pins": 4194,
      "rent": 4195,
      "soy": 4196,
      "sens": 4197,
      "tant": 4198,
      "tisse": 4199,
      "tut": 4200,
      "vont": 4201,
      "vus": 4202,
      "vra": 4203,
      "##ry": 4204,
      "##rage": 4205,
      "##uch": 4206,
      "##unes": 4207,
      "##uteur": 4208,
      "##pre": 4209,
      "##venant": 4210,
      "##mieres": 4211,
      "##ber": 4212,
      "##ye": 4213,
      "##gles": 4214,
      "##ker": 4215,
      "##ouliere": 4216,
      "etab": 4217,
      "##ino": 4218,
      "##illa": 4219,
      "chiff": 4220,
      "chute": 4221,
      "##orium": 4222,
      "triste": 4223,
      "##ald": 4224,
      "##alte": 4225,
      "real": 4226,
      "cola": 4227,
      "coff": 4228,
      "paralle": 4229,
      "##oirs": 4230,
      "##icop": 4231,
      "arm": 4232,
      "arcade": 4233,
      "##ierement": 4234,
      "##abe": 4235,
      "##agere": 4236,
      "brace": 4237,
      "marchand": 4238,
      "##rosse": 4239,
      "plong": 4240,
      "inde": 4241,
      "poche": 4242,
      "##amique": 4243,
      "nom": 4244,
      "termin": 4245,
      "exh": 4246,
      "asph": 4247,
      "manœu": 4248,
      "prela": 4249,
      "spec": 4250,
      "##oyant": 4251,
      "enseign": 4252,
      "ballet": 4253,
      "bascule": 4254,
      "peign": 4255,
      "peinte": 4256,
      "##imon": 4257,
      "canette": 4258,
      "canad": 4259,
      "bonne": 4260,
      "ouvrant": 4261,
      "##ider": 4262,
      "tache": 4263,
      "compagn": 4264,
      "essaient": 4265,
      "restauration": 4266,
      "travailleur": 4267,
      "collines": 4268,
      "attendre": 4269,
      "perilleux": 4270,
      "epais": 4271,
      "epoux": 4272,
      "deploy": 4273,
      "remplit": 4274,
      "##ignon": 4275,
      "secoue": 4276,
      "cree": 4277,
      "mob": 4278,
      "moins": 4279,
      "balancent": 4280,
      "echasses": 4281,
      "ponton": 4282,
      "concours": 4283,
      "chariots": 4284,
      "sportive": 4285,
      "peup": 4286,
      "retrie": 4287,
      "bandouliere": 4288,
      "vendent": 4289,
      "libre": 4290,
      "graffiti": 4291,
      "pilotes": 4292,
      "tapant": 4293,
      "mascul": 4294,
      "ecrans": 4295,
      "joie": 4296,
      "touchant": 4297,
      "capot": 4298,
      "trouver": 4299,
      "cuisiner": 4300,
      "accroupis": 4301,
      "pellete": 4302,
      "pellette": 4303,
      "examinent": 4304,
      "adverses": 4305,
      "##illeres": 4306,
      "ecouter": 4307,
      "reflet": 4308,
      "couchee": 4309,
      "boites": 4310,
      "demois": 4311,
      "fleuri": 4312,
      "navire": 4313,
      "from": 4314,
      "reunies": 4315,
      "##yclette": 4316,
      "finir": 4317,
      "seulement": 4318,
      "douche": 4319,
      "citron": 4320,
      "echafaudages": 4321,
      "admir": 4322,
      "admire": 4323,
      "menu": 4324,
      "patineur": 4325,
      "argentee": 4326,
      "emer": 4327,
      "mince": 4328,
      "environnement": 4329,
      "sarcelle": 4330,
      "chameau": 4331,
      "pointant": 4332,
      "transporte": 4333,
      "fabrique": 4334,
      "experience": 4335,
      "manipule": 4336,
      "obscurite": 4337,
      "inspectent": 4338,
      "poulet": 4339,
      "auditorium": 4340,
      "religieuse": 4341,
      "perdu": 4342,
      "helicop": 4343,
      "habits": 4344,
      "pistolet": 4345,
      "plaisir": 4346,
      "blazer": 4347,
      "mcdon": 4348,
      "quarter": 4349,
      "mexicain": 4350,
      "espagnol": 4351,
      "signalisation": 4352,
      "diplome": 4353,
      "gagner": 4354,
      "pupitre": 4355,
      "entreprise": 4356,
      "fatigue": 4357,
      "hawa": 4358,
      "vacances": 4359,
      "enregistre": 4360,
      "rappel": 4361,
      "choregraphie": 4362,
      "nœud": 4363,
      "etabl": 4364,
      "asphalte": 4365,
      "retriever": 4366,
      "helicoptere": 4367,
      "cout": 4368,
      "cult": 4369,
      "drap": 4370,
      "durant": 4371,
      "drib": 4372,
      "fois": 4373,
      "fumer": 4374,
      "ham": 4375,
      "ip": 4376,
      "is": 4377,
      "jack": 4378,
      "kit": 4379,
      "kart": 4380,
      "mit": 4381,
      "mid": 4382,
      "ni": 4383,
      "neu": 4384,
      "notes": 4385,
      "nappe": 4386,
      "os": 4387,
      "pu": 4388,
      "ping": 4389,
      "rav": 4390,
      "rad": 4391,
      "sui": 4392,
      "vite": 4393,
      "valle": 4394,
      "wake": 4395,
      "##riques": 4396,
      "##rines": 4397,
      "##ah": 4398,
      "##ug": 4399,
      "##cont": 4400,
      "##pc": 4401,
      "##ping": 4402,
      "##owe": 4403,
      "##vol": 4404,
      "##vise": 4405,
      "##sion": 4406,
      "##ks": 4407,
      "##onn": 4408,
      "##arr": 4409,
      "##arium": 4410,
      "enter": 4411,
      "##ish": 4412,
      "##temp": 4413,
      "##inis": 4414,
      "chand": 4415,
      "chic": 4416,
      "chap": 4417,
      "chocol": 4418,
      "##itu": 4419,
      "##itif": 4420,
      "##itouf": 4421,
      "##chron": 4422,
      "##nelles": 4423,
      "lever": 4424,
      "##ster": 4425,
      "##ata": 4426,
      "##ater": 4427,
      "deuxieme": 4428,
      "##ota": 4429,
      "##oton": 4430,
      "repe": 4431,
      "reve": 4432,
      "com": 4433,
      "marin": 4434,
      "prix": 4435,
      "pratique": 4436,
      "princ": 4437,
      "##icien": 4438,
      "##icaux": 4439,
      "##illers": 4440,
      "##olog": 4441,
      "pourpre": 4442,
      "couvrant": 4443,
      "##iger": 4444,
      "pliant": 4445,
      "cheminee": 4446,
      "proche": 4447,
      "proches": 4448,
      "inh": 4449,
      "poing": 4450,
      "poign": 4451,
      "maj": 4452,
      "mache": 4453,
      "balay": 4454,
      "fosse": 4455,
      "foyer": 4456,
      "ecart": 4457,
      "franch": 4458,
      "jeep": 4459,
      "baiser": 4460,
      "chevre": 4461,
      "vieilles": 4462,
      "cah": 4463,
      "caleche": 4464,
      "passager": 4465,
      "saluant": 4466,
      "skateurs": 4467,
      "cannes": 4468,
      "and": 4469,
      "anti": 4470,
      "soigne": 4471,
      "bondit": 4472,
      "visibles": 4473,
      "memes": 4474,
      "amerique": 4475,
      "surfer": 4476,
      "complet": 4477,
      "bob": 4478,
      "serveur": 4479,
      "rassemblant": 4480,
      "pierc": 4481,
      "monosp": 4482,
      "perles": 4483,
      "peintre": 4484,
      "epar": 4485,
      "epouse": 4486,
      "remplissant": 4487,
      "rayees": 4488,
      "debardeurs": 4489,
      "secher": 4490,
      "commande": 4491,
      "moby": 4492,
      "juges": 4493,
      "balancant": 4494,
      "lacrosse": 4495,
      "concur": 4496,
      "industr": 4497,
      "lancent": 4498,
      "ferrees": 4499,
      "circu": 4500,
      "bandes": 4501,
      "live": 4502,
      "corn": 4503,
      "ecras": 4504,
      "effectuent": 4505,
      "drole": 4506,
      "boys": 4507,
      "jardinage": 4508,
      "servir": 4509,
      "##achu": 4510,
      "roulants": 4511,
      "proje": 4512,
      "projecteur": 4513,
      "bikinis": 4514,
      "oreillers": 4515,
      "reparent": 4516,
      "medical": 4517,
      "chercher": 4518,
      "tombent": 4519,
      "agenouilles": 4520,
      "rencont": 4521,
      "banniere": 4522,
      "tendant": 4523,
      "tendus": 4524,
      "demar": 4525,
      "pots": 4526,
      "chinoises": 4527,
      "photographes": 4528,
      "flanant": 4529,
      "engage": 4530,
      "surveillent": 4531,
      "decorations": 4532,
      "joli": 4533,
      "circulent": 4534,
      "pinata": 4535,
      "smas": 4536,
      "trepie": 4537,
      "tricote": 4538,
      "naviguant": 4539,
      "marchandise": 4540,
      "texto": 4541,
      "moustachu": 4542,
      "raser": 4543,
      "rasant": 4544,
      "savourent": 4545,
      "appartement": 4546,
      "decoupant": 4547,
      "cell": 4548,
      "miniature": 4549,
      "pourchassant": 4550,
      "canards": 4551,
      "hallowe": 4552,
      "ceintures": 4553,
      "couverts": 4554,
      "explor": 4555,
      "corpulente": 4556,
      "quitte": 4557,
      "entrepot": 4558,
      "informatique": 4559,
      "verdoyant": 4560,
      "verdoyante": 4561,
      "aquarium": 4562,
      "distributeur": 4563,
      "levrier": 4564,
      "verifie": 4565,
      "artifice": 4566,
      "emmitouf": 4567,
      "impliquant": 4568,
      "steak": 4569,
      "broch": 4570,
      "executent": 4571,
      "infirmieres": 4572,
      "agricole": 4573,
      "defilent": 4574,
      "elmo": 4575,
      "pasteques": 4576,
      "eventail": 4577,
      "intervie": 4578,
      "billets": 4579,
      "brouillard": 4580,
      "synchron": 4581,
      "mauv": 4582,
      "veget": 4583,
      "perruque": 4584,
      "curieux": 4585,
      "veston": 4586,
      "soda": 4587,
      "buffet": 4588,
      "soyeux": 4589,
      "peignoir": 4590,
      "fromage": 4591,
      "mcdonald": 4592,
      "quarterback": 4593,
      "midi": 4594,
      "suivant": 4595,
      "vallee": 4596,
      "wakeboard": 4597,
      "chocolat": 4598,
      "revetement": 4599,
      "princip": 4600,
      "monospace": 4601,
      "halloween": 4602,
      "amp": 4603,
      "abo": 4604,
      "bieres": 4605,
      "bœu": 4606,
      "ci": 4607,
      "cue": 4608,
      "cuit": 4609,
      "cable": 4610,
      "cadeaux": 4611,
      "fu": 4612,
      "fle": 4613,
      "his": 4614,
      "it": 4615,
      "iro": 4616,
      "kimon": 4617,
      "mis": 4618,
      "mene": 4619,
      "nue": 4620,
      "oeu": 4621,
      "omb": 4622,
      "pun": 4623,
      "riz": 4624,
      "sin": 4625,
      "soir": 4626,
      "squ": 4627,
      "soup": 4628,
      "signes": 4629,
      "singe": 4630,
      "th": 4631,
      "tort": 4632,
      "tige": 4633,
      "times": 4634,
      "ul": 4635,
      "xy": 4636,
      "##rier": 4637,
      "##ast": 4638,
      "##tim": 4639,
      "##utes": 4640,
      "##pan": 4641,
      "##pins": 4642,
      "##omme": 4643,
      "##oque": 4644,
      "##oph": 4645,
      "##hes": 4646,
      "##voir": 4647,
      "##venir": 4648,
      "##dient": 4649,
      "##fic": 4650,
      "##met": 4651,
      "##mart": 4652,
      "##wing": 4653,
      "##ga": 4654,
      "##gence": 4655,
      "demon": 4656,
      "##ese": 4657,
      "##enue": 4658,
      "ence": 4659,
      "##ecage": 4660,
      "desord": 4661,
      "##ueuses": 4662,
      "etique": 4663,
      "etroit": 4664,
      "##reet": 4665,
      "##ink": 4666,
      "##ilant": 4667,
      "chine": 4668,
      "##orn": 4669,
      "##oral": 4670,
      "laque": 4671,
      "lavent": 4672,
      "lapin": 4673,
      "##itres": 4674,
      "feux": 4675,
      "##ssant": 4676,
      "troupe": 4677,
      "##eute": 4678,
      "grillage": 4679,
      "aud": 4680,
      "##otant": 4681,
      "estom": 4682,
      "##iereuse": 4683,
      "##langer": 4684,
      "rele": 4685,
      "quilles": 4686,
      "quoi": 4687,
      "cock": 4688,
      "##cheur": 4689,
      "marmite": 4690,
      "marecage": 4691,
      "##oires": 4692,
      "debarr": 4693,
      "##conn": 4694,
      "##lace": 4695,
      "##laires": 4696,
      "##icile": 4697,
      "aride": 4698,
      "##aties": 4699,
      "##oly": 4700,
      "##eler": 4701,
      "##endre": 4702,
      "##osc": 4703,
      "##ineux": 4704,
      "##iteau": 4705,
      "sauc": 4706,
      "sauve": 4707,
      "trainant": 4708,
      "##apor": 4709,
      "coud": 4710,
      "chale": 4711,
      "inv": 4712,
      "ingre": 4713,
      "inconn": 4714,
      "poele": 4715,
      "plaquer": 4716,
      "noix": 4717,
      "casino": 4718,
      "ouverts": 4719,
      "dessins": 4720,
      "beiges": 4721,
      "frise": 4722,
      "sourc": 4723,
      "skiant": 4724,
      "street": 4725,
      "amour": 4726,
      "##lophone": 4727,
      "##oney": 4728,
      "coupent": 4729,
      "bache": 4730,
      "maniere": 4731,
      "##ctur": 4732,
      "batman": 4733,
      "murale": 4734,
      "boucher": 4735,
      "boulanger": 4736,
      "##oyer": 4737,
      "poudre": 4738,
      "passion": 4739,
      "salue": 4740,
      "saluent": 4741,
      "caniche": 4742,
      "contain": 4743,
      "contrer": 4744,
      "contenu": 4745,
      "bords": 4746,
      "ans": 4747,
      "bond": 4748,
      "recup": 4749,
      "visiere": 4750,
      "visite": 4751,
      "acco": 4752,
      "champs": 4753,
      "tailler": 4754,
      "compris": 4755,
      "rail": 4756,
      "raide": 4757,
      "posee": 4758,
      "posees": 4759,
      "souriants": 4760,
      "##ctions": 4761,
      "litt": 4762,
      "touriste": 4763,
      "serpent": 4764,
      "collation": 4765,
      "montagneux": 4766,
      "etreint": 4767,
      "etreignant": 4768,
      "##opes": 4769,
      "##opoly": 4770,
      "monopoly": 4771,
      "eponge": 4772,
      "ongles": 4773,
      "poussent": 4774,
      "poussiereuse": 4775,
      "tabliers": 4776,
      "secour": 4777,
      "barbus": 4778,
      "eclair": 4779,
      "vitres": 4780,
      "adolescentes": 4781,
      "sports": 4782,
      "essayent": 4783,
      "##uyant": 4784,
      "expression": 4785,
      "musical": 4786,
      "moyenne": 4787,
      "##vention": 4788,
      "impos": 4789,
      "empile": 4790,
      "plongeurs": 4791,
      "cuisinent": 4792,
      "serveuse": 4793,
      "garder": 4794,
      "temple": 4795,
      "stationnement": 4796,
      "accroches": 4797,
      "accrochant": 4798,
      "oreiller": 4799,
      "urgence": 4800,
      "detendant": 4801,
      "sculpte": 4802,
      "encad": 4803,
      "calmes": 4804,
      "pauvre": 4805,
      "bloquer": 4806,
      "##monica": 4807,
      "cherchent": 4808,
      "insc": 4809,
      "forces": 4810,
      "trafic": 4811,
      "cerceaux": 4812,
      "coiffeur": 4813,
      "patinent": 4814,
      "kayaks": 4815,
      "appuyee": 4816,
      "œuf": 4817,
      "clowns": 4818,
      "photographier": 4819,
      "atteint": 4820,
      "endroits": 4821,
      "flanent": 4822,
      "flanelle": 4823,
      "guitares": 4824,
      "museliere": 4825,
      "sculptures": 4826,
      "survetement": 4827,
      "harmonica": 4828,
      "savon": 4829,
      "gazonne": 4830,
      "palmier": 4831,
      "pagayant": 4832,
      "platef": 4833,
      "crosse": 4834,
      "approchant": 4835,
      "double": 4836,
      "boucle": 4837,
      "grimpent": 4838,
      "boxe": 4839,
      "acrobaties": 4840,
      "admirant": 4841,
      "officiel": 4842,
      "officielle": 4843,
      "mecan": 4844,
      "filmer": 4845,
      "filmant": 4846,
      "##stration": 4847,
      "deguisee": 4848,
      "pigeon": 4849,
      "decharge": 4850,
      "enlever": 4851,
      "bougie": 4852,
      "incline": 4853,
      "creusent": 4854,
      "catcheur": 4855,
      "situee": 4856,
      "autoch": 4857,
      "celebre": 4858,
      "olympique": 4859,
      "brillantes": 4860,
      "appele": 4861,
      "dinosa": 4862,
      "formation": 4863,
      "arrange": 4864,
      "exercice": 4865,
      "bambou": 4866,
      "transpar": 4867,
      "enlace": 4868,
      "fabri": 4869,
      "ballerines": 4870,
      "glacier": 4871,
      "obscure": 4872,
      "encouragent": 4873,
      "fixe": 4874,
      "tuba": 4875,
      "genouilleres": 4876,
      "inspectant": 4877,
      "universitaire": 4878,
      "truck": 4879,
      "pizza": 4880,
      "walmart": 4881,
      "ethnique": 4882,
      "extremite": 4883,
      "construit": 4884,
      "gouter": 4885,
      "##obile": 4886,
      "bronz": 4887,
      "renverse": 4888,
      "rurale": 4889,
      "##ript": 4890,
      "brossant": 4891,
      "prochain": 4892,
      "ascension": 4893,
      "citrouille": 4894,
      "atterrir": 4895,
      "activites": 4896,
      "luttent": 4897,
      "messieurs": 4898,
      "surelevee": 4899,
      "##atrice": 4900,
      "casserole": 4901,
      "lanternes": 4902,
      "shopping": 4903,
      "tomates": 4904,
      "croisees": 4905,
      "guerre": 4906,
      "histor": 4907,
      "coussin": 4908,
      "plantant": 4909,
      "fourgonnette": 4910,
      "fantais": 4911,
      "mutuellement": 4912,
      "coffre": 4913,
      "bracelet": 4914,
      "peuple": 4915,
      "demoiselles": 4916,
      "etablissement": 4917,
      "hamac": 4918,
      "neuf": 4919,
      "repete": 4920,
      "trepied": 4921,
      "hispan": 4922,
      "iroquoise": 4923,
      "xylophone": 4924,
      "##dients": 4925,
      "demonstration": 4926,
      "enceinte": 4927,
      "estomac": 4928,
      "ingredients": 4929,
      "recupere": 4930,
      "ains": 4931,
      "bes": 4932,
      "bic": 4933,
      "bel": 4934,
      "bong": 4935,
      "belles": 4936,
      "cise": 4937,
      "civ": 4938,
      "er": 4939,
      "fet": 4940,
      "gale": 4941,
      "hur": 4942,
      "hand": 4943,
      "ir": 4944,
      "jen": 4945,
      "jav": 4946,
      "kick": 4947,
      "ly": 4948,
      "lot": 4949,
      "mes": 4950,
      "ment": 4951,
      "mol": 4952,
      "mel": 4953,
      "mass": 4954,
      "oh": 4955,
      "pon": 4956,
      "poney": 4957,
      "ry": 4958,
      "rat": 4959,
      "rout": 4960,
      "rall": 4961,
      "ride": 4962,
      "sue": 4963,
      "tag": 4964,
      "tigre": 4965,
      "up": 4966,
      "venant": 4967,
      "viennent": 4968,
      "##ral": 4969,
      "##rav": 4970,
      "##ram": 4971,
      "##roule": 4972,
      "##aches": 4973,
      "##iale": 4974,
      "##uv": 4975,
      "##caille": 4976,
      "##hant": 4977,
      "##ning": 4978,
      "##vient": 4979,
      "##vette": 4980,
      "##sent": 4981,
      "##drale": 4982,
      "##mud": 4983,
      "##lante": 4984,
      "##beuse": 4985,
      "##wer": 4986,
      "##gge": 4987,
      "##xy": 4988,
      "##ka": 4989,
      "##ja": 4990,
      "##jour": 4991,
      "##jours": 4992,
      "unis": 4993,
      "deter": 4994,
      "deneige": 4995,
      "demi": 4996,
      "##arcon": 4997,
      "##arpes": 4998,
      "enroule": 4999,
      "##ister": 5000,
      "##tements": 5001,
      "##echer": 5002,
      "destin": 5003,
      "desarcon": 5004,
      "##uelle": 5005,
      "etage": 5006,
      "etats": 5007,
      "etait": 5008,
      "etagere": 5009,
      "##intes": 5010,
      "avent": 5011,
      "chip": 5012,
      "##oroute": 5013,
      "troph": 5014,
      "grotte": 5015,
      "##oters": 5016,
      "##iee": 5017,
      "##iege": 5018,
      "##ains": 5019,
      "##iennes": 5020,
      "marion": 5021,
      "maries": 5022,
      "parce": 5023,
      "prot": 5024,
      "##ortant": 5025,
      "sep": 5026,
      "seance": 5027,
      "regroup": 5028,
      "autoroute": 5029,
      "##illons": 5030,
      "##atifs": 5031,
      "##eles": 5032,
      "##elot": 5033,
      "##alles": 5034,
      "##abitue": 5035,
      "##isees": 5036,
      "rocaille": 5037,
      "bra": 5038,
      "brit": 5039,
      "brunes": 5040,
      "trains": 5041,
      "couches": 5042,
      "plume": 5043,
      "presse": 5044,
      "inache": 5045,
      "maquette": 5046,
      "balais": 5047,
      "nomme": 5048,
      "dessiner": 5049,
      "beaux": 5050,
      "neg": 5051,
      "ecl": 5052,
      "entrent": 5053,
      "frire": 5054,
      "fruit": 5055,
      "apple": 5056,
      "contemp": 5057,
      "tableaux": 5058,
      "star": 5059,
      "stop": 5060,
      "ador": 5061,
      "amies": 5062,
      "fontaines": 5063,
      "herbeuse": 5064,
      "barque": 5065,
      "baigne": 5066,
      "versant": 5067,
      "prete": 5068,
      "bataille": 5069,
      "chevale": 5070,
      "muret": 5071,
      "##issiere": 5072,
      "spons": 5073,
      "##rase": 5074,
      "##raich": 5075,
      "soon": 5076,
      "##aises": 5077,
      "rocheuses": 5078,
      "polit": 5079,
      "polos": 5080,
      "##hedrale": 5081,
      "partage": 5082,
      "musul": 5083,
      "muscle": 5084,
      "poser": 5085,
      "ouvrir": 5086,
      "amerind": 5087,
      "compr": 5088,
      "comple": 5089,
      "domin": 5090,
      "spectateur": 5091,
      "board": 5092,
      "feutre": 5093,
      "souriantes": 5094,
      "essuie": 5095,
      "##riet": 5096,
      "##rible": 5097,
      "peloton": 5098,
      "serrent": 5099,
      "patins": 5100,
      "epoque": 5101,
      "onze": 5102,
      "eleve": 5103,
      "instructions": 5104,
      "affiches": 5105,
      "echant": 5106,
      "echarpes": 5107,
      "##ettis": 5108,
      "entourant": 5109,
      "entourent": 5110,
      "afin": 5111,
      "logo": 5112,
      "sud": 5113,
      "suivent": 5114,
      "vitrines": 5115,
      "##essent": 5116,
      "fermier": 5117,
      "mouillee": 5118,
      "sortent": 5119,
      "effr": 5120,
      "particul": 5121,
      "numerique": 5122,
      "pilier": 5123,
      "masques": 5124,
      "souvenir": 5125,
      "jogge": 5126,
      "rassemblee": 5127,
      "etudiante": 5128,
      "touchent": 5129,
      "toujours": 5130,
      "cigare": 5131,
      "blott": 5132,
      "lumin": 5133,
      "lumineux": 5134,
      "cuisiniers": 5135,
      "entourees": 5136,
      "tatouee": 5137,
      "remuant": 5138,
      "berge": 5139,
      "bermud": 5140,
      "observer": 5141,
      "electriques": 5142,
      "etendu": 5143,
      "cameram": 5144,
      "rapport": 5145,
      "stationne": 5146,
      "apprenant": 5147,
      "gravissent": 5148,
      "reparations": 5149,
      "donnent": 5150,
      "egout": 5151,
      "scooters": 5152,
      "eteindre": 5153,
      "troncs": 5154,
      "amuser": 5155,
      "eclabousse": 5156,
      "bananes": 5157,
      "tendue": 5158,
      "automobile": 5159,
      "nattes": 5160,
      "demande": 5161,
      "flammes": 5162,
      "gonfle": 5163,
      "soulevant": 5164,
      "attelage": 5165,
      "pechent": 5166,
      "talent": 5167,
      "collegue": 5168,
      "collegues": 5169,
      "occupent": 5170,
      "pneum": 5171,
      "propriet": 5172,
      "gonflables": 5173,
      "pagay": 5174,
      "pagaient": 5175,
      "alimentaires": 5176,
      "canoes": 5177,
      "pyram": 5178,
      "douce": 5179,
      "pinceau": 5180,
      "voirie": 5181,
      "resp": 5182,
      "chargeant": 5183,
      "flottent": 5184,
      "text": 5185,
      "alpinistes": 5186,
      "poutres": 5187,
      "verdure": 5188,
      "applaudit": 5189,
      "telephones": 5190,
      "officier": 5191,
      "menuis": 5192,
      "grattant": 5193,
      "magnifiques": 5194,
      "professionnels": 5195,
      "dechire": 5196,
      "couvercle": 5197,
      "colorie": 5198,
      "percute": 5199,
      "coequipiers": 5200,
      "cathedrale": 5201,
      "guide": 5202,
      "quittant": 5203,
      "composee": 5204,
      "jockeys": 5205,
      "aquatique": 5206,
      "soutien": 5207,
      "verifiant": 5208,
      "exercices": 5209,
      "bambin": 5210,
      "crayons": 5211,
      "artisanat": 5212,
      "excite": 5213,
      "anneau": 5214,
      "reflechissants": 5215,
      "poster": 5216,
      "tournage": 5217,
      "assemble": 5218,
      "sprink": 5219,
      "pizzeria": 5220,
      "fonctionner": 5221,
      "modele": 5222,
      "infirmiere": 5223,
      "construisent": 5224,
      "agricul": 5225,
      "defilant": 5226,
      "interagissent": 5227,
      "bavard": 5228,
      "pirate": 5229,
      "personnages": 5230,
      "elevateur": 5231,
      "sucette": 5232,
      "encombree": 5233,
      "bulldo": 5234,
      "defenseur": 5235,
      "athletisme": 5236,
      "renifle": 5237,
      "cyg": 5238,
      "classique": 5239,
      "mascotte": 5240,
      "rappro": 5241,
      "enclume": 5242,
      "smoking": 5243,
      "ebroue": 5244,
      "ejecte": 5245,
      "niveau": 5246,
      "rentrer": 5247,
      "enseignante": 5248,
      "deploye": 5249,
      "mobile": 5250,
      "pelleteuse": 5251,
      "mitaines": 5252,
      "ravin": 5253,
      "radio": 5254,
      "chandail": 5255,
      "pliantes": 5256,
      "inhabitue": 5257,
      "soigneusement": 5258,
      "eparp": 5259,
      "mobylette": 5260,
      "industriel": 5261,
      "circulaire": 5262,
      "ecrasant": 5263,
      "rencontre": 5264,
      "cellulaire": 5265,
      "vegetation": 5266,
      "ombrage": 5267,
      "square": 5268,
      "laquelle": 5269,
      "sourcils": 5270,
      "container": 5271,
      "accompl": 5272,
      "littoral": 5273,
      "inscript": 5274,
      "plateforme": 5275,
      "dinosaure": 5276,
      "ainsi": 5277,
      "bicyclette": 5278,
      "galets": 5279,
      "jenga": 5280,
      "javelot": 5281,
      "rallye": 5282,
      "chips": 5283,
      "trophee": 5284,
      "chevalet": 5285,
      "10": 5286,
      "ach": 5287,
      "anes": 5288,
      "bet": 5289,
      "barde": 5290,
      "cier": 5291,
      "cire": 5292,
      "cong": 5293,
      "cauc": 5294,
      "epe": 5295,
      "fur": 5296,
      "fier": 5297,
      "gau": 5298,
      "lar": 5299,
      "lour": 5300,
      "loupe": 5301,
      "lion": 5302,
      "mise": 5303,
      "mule": 5304,
      "menant": 5305,
      "ok": 5306,
      "ombres": 5307,
      "pic": 5308,
      "pais": 5309,
      "pistes": 5310,
      "radeaux": 5311,
      "site": 5312,
      "siff": 5313,
      "sœur": 5314,
      "ti": 5315,
      "tar": 5316,
      "tum": 5317,
      "veu": 5318,
      "vise": 5319,
      "ze": 5320,
      "zomb": 5321,
      "##act": 5322,
      "##tores": 5323,
      "##tenir": 5324,
      "##uc": 5325,
      "##uient": 5326,
      "##cles": 5327,
      "##cades": 5328,
      "##po": 5329,
      "##pres": 5330,
      "##pique": 5331,
      "##ow": 5332,
      "##omm": 5333,
      "##oche": 5334,
      "##ombres": 5335,
      "##nit": 5336,
      "##sive": 5337,
      "##di": 5338,
      "##dy": 5339,
      "##dog": 5340,
      "##fet": 5341,
      "##fraich": 5342,
      "##mans": 5343,
      "##mor": 5344,
      "##mint": 5345,
      "##bu": 5346,
      "##bon": 5347,
      "##wag": 5348,
      "##yon": 5349,
      "##gir": 5350,
      "##gers": 5351,
      "##kie": 5352,
      "##jet": 5353,
      "##œurs": 5354,
      "##esiege": 5355,
      "##ena": 5356,
      "##ench": 5357,
      "##ences": 5358,
      "##onnes": 5359,
      "##erg": 5360,
      "##erts": 5361,
      "##lement": 5362,
      "energ": 5363,
      "##ueux": 5364,
      "etat": 5365,
      "etirant": 5366,
      "##reen": 5367,
      "lapins": 5368,
      "##itule": 5369,
      "fee": 5370,
      "##cho": 5371,
      "##chon": 5372,
      "##ney": 5373,
      "##neaux": 5374,
      "trace": 5375,
      "tromb": 5376,
      "trench": 5377,
      "leop": 5378,
      "##ston": 5379,
      "##stron": 5380,
      "##atule": 5381,
      "auvent": 5382,
      "aupres": 5383,
      "##otre": 5384,
      "##otid": 5385,
      "##iem": 5386,
      "##anda": 5387,
      "##lance": 5388,
      "##ardes": 5389,
      "remp": 5390,
      "revers": 5391,
      "quotid": 5392,
      "coat": 5393,
      "coco": 5394,
      "##chee": 5395,
      "marins": 5396,
      "paressent": 5397,
      "assistant": 5398,
      "prient": 5399,
      "priant": 5400,
      "prim": 5401,
      "prises": 5402,
      "##orter": 5403,
      "semi": 5404,
      "seatt": 5405,
      "rouillee": 5406,
      "debut": 5407,
      "##cons": 5408,
      "enfon": 5409,
      "enfonce": 5410,
      "##lateur": 5411,
      "##ican": 5412,
      "##icape": 5413,
      "arabe": 5414,
      "##abo": 5415,
      "##ositif": 5416,
      "brulant": 5417,
      "##aph": 5418,
      "vernis": 5419,
      "planter": 5420,
      "provenant": 5421,
      "##iquement": 5422,
      "pop": 5423,
      "poils": 5424,
      "mac": 5425,
      "personnels": 5426,
      "##ami": 5427,
      "##ivre": 5428,
      "noctur": 5429,
      "teint": 5430,
      "tempe": 5431,
      "dessinee": 5432,
      "ecrase": 5433,
      "entasse": 5434,
      "entrant": 5435,
      "entasses": 5436,
      "entierement": 5437,
      "appart": 5438,
      "conn": 5439,
      "state": 5440,
      "##box": 5441,
      "vides": 5442,
      "barma": 5443,
      "baie": 5444,
      "baignent": 5445,
      "manuel": 5446,
      "pretre": 5447,
      "spatule": 5448,
      "vieillard": 5449,
      "cafet": 5450,
      "enseignant": 5451,
      "enseignes": 5452,
      "acteurs": 5453,
      "##ritus": 5454,
      "##ington": 5455,
      "##imet": 5456,
      "##imente": 5457,
      "canyon": 5458,
      "pleut": 5459,
      "angle": 5460,
      "pipe": 5461,
      "bonh": 5462,
      "recre": 5463,
      "reconf": 5464,
      "visible": 5465,
      "clar": 5466,
      "accid": 5467,
      "access": 5468,
      "surfeurs": 5469,
      "taillant": 5470,
      "complexe": 5471,
      "rafraich": 5472,
      "body": 5473,
      "descente": 5474,
      "charcu": 5475,
      "panor": 5476,
      "##riot": 5477,
      "pelles": 5478,
      "volants": 5479,
      "volks": 5480,
      "ramasser": 5481,
      "ramassent": 5482,
      "criant": 5483,
      "colliers": 5484,
      "agitent": 5485,
      "agrip": 5486,
      "patte": 5487,
      "patron": 5488,
      "patrou": 5489,
      "##aies": 5490,
      "publicites": 5491,
      "##verse": 5492,
      "ordre": 5493,
      "remplissent": 5494,
      "voix": 5495,
      "pense": 5496,
      "secours": 5497,
      "creer": 5498,
      "affich": 5499,
      "mots": 5500,
      "motif": 5501,
      "flou": 5502,
      "flor": 5503,
      "flot": 5504,
      "floue": 5505,
      "nageuse": 5506,
      "defend": 5507,
      "legg": 5508,
      "legos": 5509,
      "mouettes": 5510,
      "snowboarder": 5511,
      "sortes": 5512,
      "recouvrant": 5513,
      "retro": 5514,
      "retrou": 5515,
      "pulls": 5516,
      "condition": 5517,
      "exposes": 5518,
      "cupc": 5519,
      "taper": 5520,
      "construite": 5521,
      "souder": 5522,
      "##oma": 5523,
      "effectuer": 5524,
      "##ultueuses": 5525,
      "capit": 5526,
      "plongeon": 5527,
      "##ution": 5528,
      "envol": 5529,
      "envoyant": 5530,
      "participants": 5531,
      "cigarettes": 5532,
      "tatoueur": 5533,
      "interro": 5534,
      "serviettes": 5535,
      "examiner": 5536,
      "projecte": 5537,
      "biker": 5538,
      "rustique": 5539,
      "detour": 5540,
      "detritus": 5541,
      "##istiques": 5542,
      "medicaux": 5543,
      "suspendus": 5544,
      "encore": 5545,
      "africaines": 5546,
      "aband": 5547,
      "terrier": 5548,
      "cabines": 5549,
      "eloignent": 5550,
      "cerfs": 5551,
      "typique": 5552,
      "banane": 5553,
      "banlie": 5554,
      "ressemblent": 5555,
      "etrang": 5556,
      "appuyes": 5557,
      "superman": 5558,
      "foulards": 5559,
      "jeter": 5560,
      "occ": 5561,
      "potier": 5562,
      "labra": 5563,
      "surplombe": 5564,
      "soulever": 5565,
      "vaches": 5566,
      "confort": 5567,
      "confettis": 5568,
      "telesiege": 5569,
      "tuyaux": 5570,
      "intitule": 5571,
      "soufflant": 5572,
      "souffleur": 5573,
      "##ectement": 5574,
      "recevant": 5575,
      "dispositif": 5576,
      "occupes": 5577,
      "propre": 5578,
      "propos": 5579,
      "proposant": 5580,
      "barreaux": 5581,
      "rubans": 5582,
      "tenter": 5583,
      "etoiles": 5584,
      "pince": 5585,
      "trempe": 5586,
      "saxophon": 5587,
      "badmint": 5588,
      "grimper": 5589,
      "identif": 5590,
      "navigable": 5591,
      "immob": 5592,
      "rasoir": 5593,
      "locale": 5594,
      "buisson": 5595,
      "hutte": 5596,
      "mordre": 5597,
      "officiers": 5598,
      "gratuits": 5599,
      "ancienne": 5600,
      "meuble": 5601,
      "deguisees": 5602,
      "dragon": 5603,
      "atterrit": 5604,
      "exposees": 5605,
      "minces": 5606,
      "decoree": 5607,
      "incluant": 5608,
      "porc": 5609,
      "valises": 5610,
      "acheteurs": 5611,
      "guichet": 5612,
      "saris": 5613,
      "informations": 5614,
      "poupees": 5615,
      "etalage": 5616,
      "portraits": 5617,
      "appelle": 5618,
      "medecins": 5619,
      "rondes": 5620,
      "colonne": 5621,
      "pointes": 5622,
      "elephants": 5623,
      "forestiere": 5624,
      "installee": 5625,
      "melangeant": 5626,
      "emmene": 5627,
      "elastique": 5628,
      "impliques": 5629,
      "enlacant": 5630,
      "tropicale": 5631,
      "manipulant": 5632,
      "anneaux": 5633,
      "tubes": 5634,
      "terminer": 5635,
      "lutteurs": 5636,
      "supporters": 5637,
      "poulets": 5638,
      "poursu": 5639,
      "montgolfieres": 5640,
      "execute": 5641,
      "fonctionne": 5642,
      "elegant": 5643,
      "etoffes": 5644,
      "cassee": 5645,
      "ethniques": 5646,
      "tribu": 5647,
      "campement": 5648,
      "recoltes": 5649,
      "chirurgiens": 5650,
      "bavoir": 5651,
      "miami": 5652,
      "rural": 5653,
      "slip": 5654,
      "brosser": 5655,
      "prochaine": 5656,
      "liberte": 5657,
      "citrouilles": 5658,
      "activite": 5659,
      "technique": 5660,
      "personnage": 5661,
      "antiem": 5662,
      "soudure": 5663,
      "pedalant": 5664,
      "relais": 5665,
      "enflamme": 5666,
      "enflammes": 5667,
      "asperge": 5668,
      "repetent": 5669,
      "remettre": 5670,
      "illumine": 5671,
      "pulverise": 5672,
      "pittores": 5673,
      "lavabo": 5674,
      "friandise": 5675,
      "dossard": 5676,
      "rampes": 5677,
      "profondes": 5678,
      "embarc": 5679,
      "intensement": 5680,
      "artificielle": 5681,
      "similaire": 5682,
      "luxur": 5683,
      "tutu": 5684,
      "vraiment": 5685,
      "plonger": 5686,
      "compagnie": 5687,
      "hawaienne": 5688,
      "dribble": 5689,
      "ipod": 5690,
      "chapiteau": 5691,
      "piercing": 5692,
      "smashe": 5693,
      "emmitoufle": 5694,
      "synchronisee": 5695,
      "principalement": 5696,
      "bœufs": 5697,
      "souple": 5698,
      "ultim": 5699,
      "saucisses": 5700,
      "boulangerie": 5701,
      "eclairages": 5702,
      "imposante": 5703,
      "dechargeant": 5704,
      "fabriquant": 5705,
      "historique": 5706,
      "fantaisie": 5707,
      "ciseaux": 5708,
      "handicape": 5709,
      "kickbox": 5710,
      "lyce": 5711,
      "menton": 5712,
      "ryth": 5713,
      "sueur": 5714,
      "destination": 5715,
      "regroupes": 5716,
      "sponsor": 5717,
      "sooners": 5718,
      "souvenirs": 5719,
      "pyramide": 5720,
      "bulldozer": 5721,
      "inscriptions": 5722,
      "bardeaux": 5723,
      "caucas": 5724,
      "epees": 5725,
      "paisible": 5726,
      "tumultueuses": 5727,
      "##wagen": 5728,
      "leopard": 5729,
      "seattle": 5730,
      "nocturne": 5731,
      "barmaid": 5732,
      "volkswagen": 5733,
      "affichage": 5734,
      "projecteurs": 5735,
      "banlieue": 5736,
      "badminton": 5737,
      "pittoresque": 5738,
      "ultimate": 5739,
      "50": 5740,
      "aig": 5741,
      "aime": 5742,
      "bit": 5743,
      "bour": 5744,
      "bun": 5745,
      "big": 5746,
      "card": 5747,
      "cag": 5748,
      "cru": 5749,
      "cimet": 5750,
      "dau": 5751,
      "doit": 5752,
      "dores": 5753,
      "dalles": 5754,
      "formes": 5755,
      "fleche": 5756,
      "ger": 5757,
      "gig": 5758,
      "gest": 5759,
      "han": 5760,
      "hal": 5761,
      "hus": 5762,
      "hang": 5763,
      "harpe": 5764,
      "hamb": 5765,
      "haies": 5766,
      "ig": 5767,
      "los": 5768,
      "ling": 5769,
      "lice": 5770,
      "lieux": 5771,
      "mine": 5772,
      "morte": 5773,
      "mignon": 5774,
      "of": 5775,
      "page": 5776,
      "puits": 5777,
      "puisse": 5778,
      "rien": 5779,
      "rac": 5780,
      "sn": 5781,
      "sw": 5782,
      "san": 5783,
      "sen": 5784,
      "sain": 5785,
      "sque": 5786,
      "soupe": 5787,
      "side": 5788,
      "spee": 5789,
      "tiers": 5790,
      "toy": 5791,
      "tissant": 5792,
      "uk": 5793,
      "ust": 5794,
      "vues": 5795,
      "ving": 5796,
      "wash": 5797,
      "zoo": 5798,
      "##run": 5799,
      "##rite": 5800,
      "##aiss": 5801,
      "##taire": 5802,
      "##ik": 5803,
      "##iqu": 5804,
      "##ibe": 5805,
      "##iage": 5806,
      "##iaux": 5807,
      "##ieusement": 5808,
      "##uor": 5809,
      "##utant": 5810,
      "##ulateur": 5811,
      "##cel": 5812,
      "##plexe": 5813,
      "##oin": 5814,
      "##ha": 5815,
      "##ht": 5816,
      "##homa": 5817,
      "##nt": 5818,
      "##nier": 5819,
      "##naire": 5820,
      "##vation": 5821,
      "##sh": 5822,
      "##ser": 5823,
      "##du": 5824,
      "##dd": 5825,
      "##dor": 5826,
      "##dim": 5827,
      "##ford": 5828,
      "##mant": 5829,
      "##mat": 5830,
      "##lu": 5831,
      "##lin": 5832,
      "##lige": 5833,
      "##bus": 5834,
      "##buche": 5835,
      "##ys": 5836,
      "##key": 5837,
      "##ann": 5838,
      "##anne": 5839,
      "##esses": 5840,
      "##onibles": 5841,
      "##antite": 5842,
      "##ouettes": 5843,
      "##ision": 5844,
      "##tees": 5845,
      "hol": 5846,
      "hotes": 5847,
      "##entation": 5848,
      "survol": 5849,
      "surdim": 5850,
      "etages": 5851,
      "##inces": 5852,
      "avance": 5853,
      "chats": 5854,
      "chaines": 5855,
      "##ory": 5856,
      "##orant": 5857,
      "latin": 5858,
      "##irs": 5859,
      "##irie": 5860,
      "##itation": 5861,
      "trous": 5862,
      "trotte": 5863,
      "leger": 5864,
      "##atuor": 5865,
      "##otion": 5866,
      "##otheque": 5867,
      "##andant": 5868,
      "joues": 5869,
      "reag": 5870,
      "rembour": 5871,
      "quille": 5872,
      "quantite": 5873,
      "quatuor": 5874,
      "assure": 5875,
      "pare": 5876,
      "partant": 5877,
      "parvient": 5878,
      "prec": 5879,
      "selle": 5880,
      "rouille": 5881,
      "fast": 5882,
      "##asion": 5883,
      "deballe": 5884,
      "enfile": 5885,
      "enfilant": 5886,
      "##lable": 5887,
      "##lahoma": 5888,
      "sam": 5889,
      "sab": 5890,
      "##ication": 5891,
      "devanture": 5892,
      "autocol": 5893,
      "petales": 5894,
      "##illis": 5895,
      "##illante": 5896,
      "courtes": 5897,
      "lessive": 5898,
      "##quage": 5899,
      "##olo": 5900,
      "##oll": 5901,
      "##els": 5902,
      "##allant": 5903,
      "##osol": 5904,
      "##avane": 5905,
      "##cep": 5906,
      "##iseur": 5907,
      "##vez": 5908,
      "genre": 5909,
      "traine": 5910,
      "##rov": 5911,
      "##roy": 5912,
      "##rome": 5913,
      "plaine": 5914,
      "plut": 5915,
      "pluv": 5916,
      "prog": 5917,
      "phys": 5918,
      "invis": 5919,
      "poss": 5920,
      "poches": 5921,
      "power": 5922,
      "plaquant": 5923,
      "plaquage": 5924,
      "maille": 5925,
      "macher": 5926,
      "maitre": 5927,
      "maigre": 5928,
      "plane": 5929,
      "personnel": 5930,
      "##ancer": 5931,
      "cascades": 5932,
      "attir": 5933,
      "maint": 5934,
      "frotte": 5935,
      "conv": 5936,
      "derou": 5937,
      "derniere": 5938,
      "footing": 5939,
      "stores": 5940,
      "##vertes": 5941,
      "sacoche": 5942,
      "vivant": 5943,
      "jete": 5944,
      "obama": 5945,
      "obtenir": 5946,
      "barils": 5947,
      "pref": 5948,
      "batt": 5949,
      "##issage": 5950,
      "##issante": 5951,
      "##issade": 5952,
      "spider": 5953,
      "parcour": 5954,
      "escarpe": 5955,
      "pouces": 5956,
      "##entee": 5957,
      "matin": 5958,
      "caric": 5959,
      "caravane": 5960,
      "colere": 5961,
      "canon": 5962,
      "canin": 5963,
      "canettes": 5964,
      "caniches": 5965,
      "pleurer": 5966,
      "teleco": 5967,
      "##aison": 5968,
      "grises": 5969,
      "pieu": 5970,
      "rech": 5971,
      "##heureux": 5972,
      "chauff": 5973,
      "clou": 5974,
      "cliente": 5975,
      "toque": 5976,
      "meille": 5977,
      "champagne": 5978,
      "artistiques": 5979,
      "tailles": 5980,
      "skateboards": 5981,
      "essuyant": 5982,
      "tournes": 5983,
      "touristique": 5984,
      "frappent": 5985,
      "crist": 5986,
      "serres": 5987,
      "agre": 5988,
      "decombres": 5989,
      "cela": 5990,
      "patiss": 5991,
      "perplexe": 5992,
      "discotheque": 5993,
      "epice": 5994,
      "ond": 5995,
      "voiles": 5996,
      "pousser": 5997,
      "poussettes": 5998,
      "commer": 5999,
      "crev": 6000,
      "creant": 6001,
      "creation": 6002,
      "moine": 6003,
      "torche": 6004,
      "torches": 6005,
      "##akes": 6006,
      "affi": 6007,
      "balancer": 6008,
      "echappe": 6009,
      "lacets": 6010,
      "enneigees": 6011,
      "concent": 6012,
      "concour": 6013,
      "nageuses": 6014,
      "embal": 6015,
      "suite": 6016,
      "indig": 6017,
      "indiquant": 6018,
      "eviter": 6019,
      "lances": 6020,
      "vitree": 6021,
      "stands": 6022,
      "mouilles": 6023,
      "fausses": 6024,
      "paysan": 6025,
      "snowboardeurs": 6026,
      "effort": 6027,
      "corr": 6028,
      "cornes": 6029,
      "cornet": 6030,
      "numeros": 6031,
      "piles": 6032,
      "disney": 6033,
      "tapent": 6034,
      "pecheurs": 6035,
      "impatie": 6036,
      "empecher": 6037,
      "emprun": 6038,
      "trouvant": 6039,
      "promener": 6040,
      "structures": 6041,
      "participer": 6042,
      "##erieure": 6043,
      "remue": 6044,
      "services": 6045,
      "degust": 6046,
      "electric": 6047,
      "cameras": 6048,
      "amish": 6049,
      "violoniste": 6050,
      "ruade": 6051,
      "ruines": 6052,
      "adversaires": 6053,
      "ombrelles": 6054,
      "nettoyage": 6055,
      "bouton": 6056,
      "calins": 6057,
      "paon": 6058,
      "dentaire": 6059,
      "forment": 6060,
      "levee": 6061,
      "rouleau": 6062,
      "converse": 6063,
      "fourchette": 6064,
      "fourneaux": 6065,
      "aerosol": 6066,
      "geantes": 6067,
      "tyrol": 6068,
      "kayakiste": 6069,
      "banquette": 6070,
      "professionnelles": 6071,
      "incroy": 6072,
      "marathonienne": 6073,
      "demen": 6074,
      "superbe": 6075,
      "flamb": 6076,
      "jets": 6077,
      "jettent": 6078,
      "inferieure": 6079,
      "conduire": 6080,
      "photographient": 6081,
      "deplacer": 6082,
      "accrochees": 6083,
      "engins": 6084,
      "guitaristes": 6085,
      "representation": 6086,
      "museau": 6087,
      "museles": 6088,
      "endormie": 6089,
      "microscopes": 6090,
      "talents": 6091,
      "souffler": 6092,
      "rangees": 6093,
      "surveillant": 6094,
      "apprecie": 6095,
      "cereales": 6096,
      "recemment": 6097,
      "disponibles": 6098,
      "nouilles": 6099,
      "projetant": 6100,
      "idiot": 6101,
      "salete": 6102,
      "plateaux": 6103,
      "arrivant": 6104,
      "approchent": 6105,
      "douze": 6106,
      "trebuche": 6107,
      "tricot": 6108,
      "arretee": 6109,
      "rester": 6110,
      "restant": 6111,
      "respir": 6112,
      "parachut": 6113,
      "##ageres": 6114,
      "boxant": 6115,
      "boxeur": 6116,
      "moutarde": 6117,
      "chevauchent": 6118,
      "positionne": 6119,
      "tabourets": 6120,
      "distance": 6121,
      "applaudissant": 6122,
      "arreter": 6123,
      "arretant": 6124,
      "appara": 6125,
      "apparait": 6126,
      "crache": 6127,
      "japonaise": 6128,
      "bassine": 6129,
      "mecs": 6130,
      "meches": 6131,
      "ouverture": 6132,
      "installes": 6133,
      "installent": 6134,
      "drag": 6135,
      "droles": 6136,
      "annonce": 6137,
      "toilettes": 6138,
      "dorees": 6139,
      "diz": 6140,
      "feminine": 6141,
      "tranches": 6142,
      "relie": 6143,
      "couvertes": 6144,
      "pedale": 6145,
      "coloriage": 6146,
      "explos": 6147,
      "fusils": 6148,
      "malheureux": 6149,
      "symb": 6150,
      "quittent": 6151,
      "autobus": 6152,
      "adossee": 6153,
      "produire": 6154,
      "bandeaux": 6155,
      "aqua": 6156,
      "banderoles": 6157,
      "dinde": 6158,
      "arrieres": 6159,
      "soccer": 6160,
      "silhouettes": 6161,
      "elast": 6162,
      "elabo": 6163,
      "tropical": 6164,
      "show": 6165,
      "shoote": 6166,
      "shooter": 6167,
      "annees": 6168,
      "glacieres": 6169,
      "encourageant": 6170,
      "fixes": 6171,
      "assorties": 6172,
      "assortiment": 6173,
      "fortune": 6174,
      "mixage": 6175,
      "universite": 6176,
      "truc": 6177,
      "auditoire": 6178,
      "sprinte": 6179,
      "accompag": 6180,
      "contrebasse": 6181,
      "religieux": 6182,
      "extreme": 6183,
      "jaillir": 6184,
      "jaillissant": 6185,
      "interagit": 6186,
      "arroseur": 6187,
      "conser": 6188,
      "bronze": 6189,
      "ornements": 6190,
      "campeurs": 6191,
      "kitesurfeur": 6192,
      "pistolets": 6193,
      "billet": 6194,
      "choisissant": 6195,
      "marqueur": 6196,
      "ascense": 6197,
      "deambulateur": 6198,
      "sureleve": 6199,
      "suivi": 6200,
      "fraichement": 6201,
      "subway": 6202,
      "relax": 6203,
      "repetant": 6204,
      "caressant": 6205,
      "sculpteur": 6206,
      "reniflant": 6207,
      "robot": 6208,
      "brassards": 6209,
      "friandises": 6210,
      "interessant": 6211,
      "medievale": 6212,
      "ajustant": 6213,
      "smashant": 6214,
      "artificiel": 6215,
      "similaires": 6216,
      "ligue": 6217,
      "##illages": 6218,
      "chiffon": 6219,
      "paralleles": 6220,
      "noms": 6221,
      "exhibe": 6222,
      "prelassant": 6223,
      "masculine": 6224,
      "admirent": 6225,
      "couture": 6226,
      "karting": 6227,
      "nike": 6228,
      "pingou": 6229,
      "##itude": 6230,
      "franchit": 6231,
      "cahier": 6232,
      "concurr": 6233,
      "corniche": 6234,
      "projetee": 6235,
      "demarrer": 6236,
      "steaks": 6237,
      "interviewe": 6238,
      "mauvaises": 6239,
      "ital": 6240,
      "kimonos": 6241,
      "nuee": 6242,
      "tortue": 6243,
      "debarrasse": 6244,
      "inconnue": 6245,
      "empilees": 6246,
      "hispanique": 6247,
      "besoin": 6248,
      "civile": 6249,
      "##jambe": 6250,
      "marionnette": 6251,
      "separe": 6252,
      "rocailleux": 6253,
      "britann": 6254,
      "starbu": 6255,
      "adorable": 6256,
      "dominos": 6257,
      "echantillon": 6258,
      "effray": 6259,
      "lumineuse": 6260,
      "bermuda": 6261,
      "cameraman": 6262,
      "sprinklers": 6263,
      "achats": 6264,
      "betail": 6265,
      "oklahoma": 6266,
      "sifflet": 6267,
      "zebre": 6268,
      "##girl": 6269,
      "trombone": 6270,
      "tempete": 6271,
      "entassees": 6272,
      "cafeteria": 6273,
      "bonhomme": 6274,
      "clarinette": 6275,
      "leggings": 6276,
      "interroge": 6277,
      "labrador": 6278,
      "antiemeute": 6279,
      "kickboxing": 6280,
      "rythme": 6281,
      "caucasien": 6282,
      "bitume": 6283,
      "cimetiere": 6284,
      "dauph": 6285,
      "hanches": 6286,
      "husk": 6287,
      "lingerie": 6288,
      "seni": 6289,
      "speedo": 6290,
      "ustens": 6291,
      "vingt": 6292,
      "washington": 6293,
      "hotesse": 6294,
      "surdimension": 6295,
      "plutot": 6296,
      "invisible": 6297,
      "spiderman": 6298,
      "telecomm": 6299,
      "impatiemment": 6300,
      "tyrolienne": 6301,
      "starbucks": 6302,
      "12": 6303,
      "abe": 6304,
      "ampl": 6305,
      "bec": 6306,
      "bill": 6307,
      "bab": 6308,
      "bous": 6309,
      "bene": 6310,
      "bid": 6311,
      "cle": 6312,
      "cau": 6313,
      "cors": 6314,
      "cul": 6315,
      "cles": 6316,
      "cœurs": 6317,
      "ds": 6318,
      "dan": 6319,
      "drain": 6320,
      "dalle": 6321,
      "doll": 6322,
      "elan": 6323,
      "fit": 6324,
      "fic": 6325,
      "fol": 6326,
      "fine": 6327,
      "flo": 6328,
      "ford": 6329,
      "fesses": 6330,
      "gu": 6331,
      "git": 6332,
      "gap": 6333,
      "gum": 6334,
      "goute": 6335,
      "green": 6336,
      "hi": 6337,
      "hy": 6338,
      "hou": 6339,
      "henne": 6340,
      "hirs": 6341,
      "isole": 6342,
      "ivre": 6343,
      "ken": 6344,
      "lent": 6345,
      "malle": 6346,
      "ny": 6347,
      "nues": 6348,
      "nœu": 6349,
      "notre": 6350,
      "pong": 6351,
      "pick": 6352,
      "ress": 6353,
      "sante": 6354,
      "sum": 6355,
      "situ": 6356,
      "tw": 6357,
      "tart": 6358,
      "tiges": 6359,
      "var": 6360,
      "vois": 6361,
      "vapor": 6362,
      "wel": 6363,
      "water": 6364,
      "yama": 6365,
      "##rig": 6366,
      "##rade": 6367,
      "##ration": 6368,
      "##amp": 6369,
      "##ailles": 6370,
      "##ails": 6371,
      "##ty": 6372,
      "##tine": 6373,
      "##tap": 6374,
      "##tball": 6375,
      "##tone": 6376,
      "##tation": 6377,
      "##ttent": 6378,
      "##ii": 6379,
      "##ioles": 6380,
      "##ed": 6381,
      "##eb": 6382,
      "##eme": 6383,
      "##pou": 6384,
      "##pente": 6385,
      "##pations": 6386,
      "##ode": 6387,
      "##ham": 6388,
      "##na": 6389,
      "##nal": 6390,
      "##nieres": 6391,
      "##venue": 6392,
      "##sc": 6393,
      "##dr": 6394,
      "##dron": 6395,
      "##four": 6396,
      "##mites": 6397,
      "##lot": 6398,
      "##line": 6399,
      "##liste": 6400,
      "##bum": 6401,
      "##bym": 6402,
      "##glace": 6403,
      "##ju": 6404,
      "unice": 6405,
      "##ank": 6406,
      "##anas": 6407,
      "dene": 6408,
      "deere": 6409,
      "##esil": 6410,
      "##enc": 6411,
      "##enses": 6412,
      "##erv": 6413,
      "##erge": 6414,
      "##erne": 6415,
      "##errain": 6416,
      "##lem": 6417,
      "##ara": 6418,
      "##ars": 6419,
      "ench": 6420,
      "enormes": 6421,
      "##isiers": 6422,
      "##tex": 6423,
      "##ention": 6424,
      "design": 6425,
      "##ueille": 6426,
      "##ueuse": 6427,
      "etui": 6428,
      "etinc": 6429,
      "etageres": 6430,
      "##rement": 6431,
      "##inettes": 6432,
      "avi": 6433,
      "avert": 6434,
      "##ilite": 6435,
      "##aute": 6436,
      "cho": 6437,
      "chal": 6438,
      "change": 6439,
      "chim": 6440,
      "##orce": 6441,
      "##etres": 6442,
      "##etiseur": 6443,
      "lay": 6444,
      "lak": 6445,
      "lait": 6446,
      "laissant": 6447,
      "lambe": 6448,
      "lama": 6449,
      "latine": 6450,
      "##choir": 6451,
      "##chite": 6452,
      "##chiste": 6453,
      "##chena": 6454,
      "##ouriff": 6455,
      "trie": 6456,
      "triant": 6457,
      "##sters": 6458,
      "##stance": 6459,
      "grou": 6460,
      "grenou": 6461,
      "##oth": 6462,
      "##otable": 6463,
      "##ied": 6464,
      "##lane": 6465,
      "quest": 6466,
      "quatr": 6467,
      "##ness": 6468,
      "##outant": 6469,
      "coq": 6470,
      "cop": 6471,
      "cool": 6472,
      "cook": 6473,
      "assurer": 6474,
      "assied": 6475,
      "mark": 6476,
      "marelle": 6477,
      "marrons": 6478,
      "marcel": 6479,
      "parf": 6480,
      "assist": 6481,
      "prie": 6482,
      "princes": 6483,
      "##ortent": 6484,
      "##ortante": 6485,
      "semin": 6486,
      "sexy": 6487,
      "fasc": 6488,
      "debat": 6489,
      "debla": 6490,
      "##mbo": 6491,
      "##mbrer": 6492,
      "chewing": 6493,
      "arra": 6494,
      "archet": 6495,
      "archite": 6496,
      "shamp": 6497,
      "fillette": 6498,
      "##illi": 6499,
      "dunes": 6500,
      "portail": 6501,
      "couronnes": 6502,
      "lesque": 6503,
      "##quilles": 6504,
      "##demment": 6505,
      "##elere": 6506,
      "brille": 6507,
      "brise": 6508,
      "brule": 6509,
      "brut": 6510,
      "bringe": 6511,
      "bresil": 6512,
      "##ung": 6513,
      "sauts": 6514,
      "saupou": 6515,
      "trainent": 6516,
      "##apotable": 6517,
      "verglace": 6518,
      "coude": 6519,
      "couchant": 6520,
      "count": 6521,
      "cham": 6522,
      "chacu": 6523,
      "faits": 6524,
      "##igan": 6525,
      "platre": 6526,
      "orage": 6527,
      "ornee": 6528,
      "ornement": 6529,
      "phar": 6530,
      "prestation": 6531,
      "inonde": 6532,
      "##iquet": 6533,
      "poids": 6534,
      "poeles": 6535,
      "male": 6536,
      "##uler": 6537,
      "##isante": 6538,
      "##teres": 6539,
      "##terre": 6540,
      "balad": 6541,
      "marcheurs": 6542,
      "attire": 6543,
      "attach": 6544,
      "ballot": 6545,
      "bequilles": 6546,
      "##uma": 6547,
      "montrer": 6548,
      "lunette": 6549,
      "trottinettes": 6550,
      "verticale": 6551,
      "skier": 6552,
      "conse": 6553,
      "convention": 6554,
      "deroule": 6555,
      "alla": 6556,
      "album": 6557,
      "sciant": 6558,
      "str": 6559,
      "portee": 6560,
      "porteur": 6561,
      "ado": 6562,
      "ados": 6563,
      "adresse": 6564,
      "amarre": 6565,
      "arbitres": 6566,
      "arborant": 6567,
      "obese": 6568,
      "baille": 6569,
      "mets": 6570,
      "chevres": 6571,
      "##ission": 6572,
      "spa": 6573,
      "##rammes": 6574,
      "##rairie": 6575,
      "cale": 6576,
      "cast": 6577,
      "peine": 6578,
      "pouvez": 6579,
      "salade": 6580,
      "saluer": 6581,
      "repr": 6582,
      "repond": 6583,
      "solo": 6584,
      "matinee": 6585,
      "magique": 6586,
      "carres": 6587,
      "carri": 6588,
      "##ulele": 6589,
      "contin": 6590,
      "contrac": 6591,
      "control": 6592,
      "contrav": 6593,
      "camar": 6594,
      "bordant": 6595,
      "anges": 6596,
      "ananas": 6597,
      "##vrent": 6598,
      "soin": 6599,
      "sombrer": 6600,
      "##ador": 6601,
      "##aculaire": 6602,
      "recher": 6603,
      "mickey": 6604,
      "##ycles": 6605,
      "parten": 6606,
      "vision": 6607,
      "clos": 6608,
      "clous": 6609,
      "accla": 6610,
      "acceler": 6611,
      "accelere": 6612,
      "rayons": 6613,
      "muscles": 6614,
      "entrela": 6615,
      "america": 6616,
      "tamb": 6617,
      "compte": 6618,
      "raff": 6619,
      "spectaculaire": 6620,
      "##geron": 6621,
      "bosse": 6622,
      "boston": 6623,
      "restent": 6624,
      "charbon": 6625,
      "charpente": 6626,
      "essence": 6627,
      "peluch": 6628,
      "tournant": 6629,
      "crue": 6630,
      "crabe": 6631,
      "serp": 6632,
      "servent": 6633,
      "collie": 6634,
      "montagneuse": 6635,
      "decou": 6636,
      "decapotable": 6637,
      "ceux": 6638,
      "patisser": 6639,
      "patiente": 6640,
      "patriot": 6641,
      "beaute": 6642,
      "publics": 6643,
      "percant": 6644,
      "perio": 6645,
      "pleines": 6646,
      "eping": 6647,
      "depasse": 6648,
      "depose": 6649,
      "apparemment": 6650,
      "bud": 6651,
      "bugg": 6652,
      "ongle": 6653,
      "voient": 6654,
      "pens": 6655,
      "penet": 6656,
      "penches": 6657,
      "penchent": 6658,
      "second": 6659,
      "crepe": 6660,
      "paper": 6661,
      "figur": 6662,
      "mod": 6663,
      "moque": 6664,
      "moquette": 6665,
      "gueules": 6666,
      "##ettiste": 6667,
      "tires": 6668,
      "sujet": 6669,
      "carrefour": 6670,
      "glissiere": 6671,
      "##angle": 6672,
      "legume": 6673,
      "moue": 6674,
      "mouette": 6675,
      "faucon": 6676,
      "fausse": 6677,
      "famili": 6678,
      "cirer": 6679,
      "peuvent": 6680,
      "retir": 6681,
      "vendus": 6682,
      "conduisent": 6683,
      "penchees": 6684,
      "expert": 6685,
      "express": 6686,
      "exposant": 6687,
      "endort": 6688,
      "endomm": 6689,
      "musicales": 6690,
      "pilotant": 6691,
      "cuve": 6692,
      "cuvette": 6693,
      "cuivre": 6694,
      "disent": 6695,
      "ensoleille": 6696,
      "sommets": 6697,
      "##lieres": 6698,
      "difficile": 6699,
      "pompes": 6700,
      "betonniere": 6701,
      "statues": 6702,
      "jazz": 6703,
      "touff": 6704,
      "capt": 6705,
      "trouble": 6706,
      "clairse": 6707,
      "espec": 6708,
      "different": 6709,
      "venir": 6710,
      "placees": 6711,
      "blue": 6712,
      "##antesque": 6713,
      "pelletant": 6714,
      "pellettent": 6715,
      "transform": 6716,
      "commemor": 6717,
      "fouille": 6718,
      "internet": 6719,
      "interdit": 6720,
      "##ustre": 6721,
      "stationnee": 6722,
      "accrochent": 6723,
      "projection": 6724,
      "randonneuse": 6725,
      "bienvenue": 6726,
      "multip": 6727,
      "afrique": 6728,
      "detient": 6729,
      "gravir": 6730,
      "bouts": 6731,
      "boutons": 6732,
      "calif": 6733,
      "traditionnelles": 6734,
      "abat": 6735,
      "insol": 6736,
      "echelles": 6737,
      "forgeron": 6738,
      "horlo": 6739,
      "meres": 6740,
      "levees": 6741,
      "refug": 6742,
      "cerisiers": 6743,
      "gele": 6744,
      "geants": 6745,
      "gelee": 6746,
      "geish": 6747,
      "reno": 6748,
      "renv": 6749,
      "renaiss": 6750,
      "coiffeuse": 6751,
      "patineuse": 6752,
      "kayakistes": 6753,
      "bannieres": 6754,
      "tendu": 6755,
      "sauvages": 6756,
      "instant": 6757,
      "instit": 6758,
      "automatiques": 6759,
      "natte": 6760,
      "etranges": 6761,
      "demandant": 6762,
      "cravates": 6763,
      "flag": 6764,
      "labour": 6765,
      "chinoise": 6766,
      "photographies": 6767,
      "golfeur": 6768,
      "soulevent": 6769,
      "accrochee": 6770,
      "represente": 6771,
      "musele": 6772,
      "muselieres": 6773,
      "chaton": 6774,
      "tunique": 6775,
      "endormis": 6776,
      "pietonne": 6777,
      "decorative": 6778,
      "protections": 6779,
      "recevoir": 6780,
      "dispose": 6781,
      "disposes": 6782,
      "disputant": 6783,
      "occupations": 6784,
      "heure": 6785,
      "jongler": 6786,
      "humaine": 6787,
      "jolies": 6788,
      "tetine": 6789,
      "propres": 6790,
      "propose": 6791,
      "offre": 6792,
      "palais": 6793,
      "palissade": 6794,
      "applique": 6795,
      "commercant": 6796,
      "crochet": 6797,
      "##odrome": 6798,
      "poubelles": 6799,
      "joyeux": 6800,
      "joyeuses": 6801,
      "pinces": 6802,
      "pincant": 6803,
      "treillis": 6804,
      "citrons": 6805,
      "balcons": 6806,
      "reflets": 6807,
      "nouveaux": 6808,
      "parachutes": 6809,
      "paintball": 6810,
      "boxer": 6811,
      "boxeurs": 6812,
      "identique": 6813,
      "olive": 6814,
      "pietonnier": 6815,
      "gamins": 6816,
      "acrobatiques": 6817,
      "tondant": 6818,
      "voyagent": 6819,
      "voyageant": 6820,
      "##zzle": 6821,
      "rambardes": 6822,
      "rugbym": 6823,
      "savourant": 6824,
      "mordant": 6825,
      "apparence": 6826,
      "appartements": 6827,
      "dejeunent": 6828,
      "ambu": 6829,
      "reflechit": 6830,
      "bassiste": 6831,
      "tuiles": 6832,
      "frontale": 6833,
      "origin": 6834,
      "rameurs": 6835,
      "appuyees": 6836,
      "miniju": 6837,
      "trompettiste": 6838,
      "atterri": 6839,
      "toilette": 6840,
      "minut": 6841,
      "diable": 6842,
      "diapor": 6843,
      "croisent": 6844,
      "croisiere": 6845,
      "percuter": 6846,
      "explique": 6847,
      "actuellement": 6848,
      "catch": 6849,
      "guidon": 6850,
      "saisissant": 6851,
      "poilu": 6852,
      "agitee": 6853,
      "bijout": 6854,
      "information": 6855,
      "lechant": 6856,
      "##culer": 6857,
      "##culent": 6858,
      "##urgers": 6859,
      "appel": 6860,
      "angeles": 6861,
      "decoller": 6862,
      "former": 6863,
      "rondins": 6864,
      "souterrain": 6865,
      "villageois": 6866,
      "exercant": 6867,
      "scientifiques": 6868,
      "taxis": 6869,
      "implique": 6870,
      "kilts": 6871,
      "teck": 6872,
      "ecoliere": 6873,
      "experimente": 6874,
      "glaciere": 6875,
      "encourage": 6876,
      "photographiee": 6877,
      "dressee": 6878,
      "ebouriff": 6879,
      "tournoyer": 6880,
      "tourniquet": 6881,
      "enveloppee": 6882,
      "baguette": 6883,
      "lutteur": 6884,
      "occupees": 6885,
      "japonaises": 6886,
      "morts": 6887,
      "mortes": 6888,
      "mixte": 6889,
      "peintes": 6890,
      "elegante": 6891,
      "voyageurs": 6892,
      "matela": 6893,
      "delici": 6894,
      "deltap": 6895,
      "jaillit": 6896,
      "opposees": 6897,
      "europeen": 6898,
      "sangle": 6899,
      "##thetiseur": 6900,
      "hotdog": 6901,
      "recolte": 6902,
      "voiliers": 6903,
      "allumee": 6904,
      "divertir": 6905,
      "divertit": 6906,
      "chirurgicale": 6907,
      "pirates": 6908,
      "slal": 6909,
      "slide": 6910,
      "sirene": 6911,
      "choisissent": 6912,
      "brouss": 6913,
      "librairie": 6914,
      "atterrissage": 6915,
      "synthetiseur": 6916,
      "celebrant": 6917,
      "celebrent": 6918,
      "technolog": 6919,
      "##tones": 6920,
      "deambulant": 6921,
      "extension": 6922,
      "vegas": 6923,
      "perruques": 6924,
      "elevatrice": 6925,
      "commandes": 6926,
      "commander": 6927,
      "suivre": 6928,
      "pedalo": 6929,
      "central": 6930,
      "lanterne": 6931,
      "substance": 6932,
      "tribal": 6933,
      "triangle": 6934,
      "francais": 6935,
      "caressent": 6936,
      "tomate": 6937,
      "defenseurs": 6938,
      "sculptant": 6939,
      "rebondir": 6940,
      "crosses": 6941,
      "farine": 6942,
      "domicile": 6943,
      "echauffant": 6944,
      "impressionnant": 6945,
      "mascara": 6946,
      "rapporte": 6947,
      "enclos": 6948,
      "combattants": 6949,
      "ajuster": 6950,
      "smokings": 6951,
      "hippique": 6952,
      "hippodrome": 6953,
      "gouver": 6954,
      "goudron": 6955,
      "light": 6956,
      "tutus": 6957,
      "realise": 6958,
      "realiser": 6959,
      "plongent": 6960,
      "terminant": 6961,
      "exhib": 6962,
      "special": 6963,
      "canadien": 6964,
      "compagnon": 6965,
      "emerge": 6966,
      "emerve": 6967,
      "enregistrement": 6968,
      "coutur": 6969,
      "kitchena": 6970,
      "osier": 6971,
      "puces": 6972,
      "puzzle": 6973,
      "majest": 6974,
      "antiqu": 6975,
      "concurrent": 6976,
      "brochure": 6977,
      "aboyant": 6978,
      "flech": 6979,
      "oeuvres": 6980,
      "punk": 6981,
      "punch": 6982,
      "troupeau": 6983,
      "cockpit": 6984,
      "##oscope": 6985,
      "sauveteurs": 6986,
      "invites": 6987,
      "amoureux": 6988,
      "boucherie": 6989,
      "bondissant": 6990,
      "secouristes": 6991,
      "autochtone": 6992,
      "autochtones": 6993,
      "transparent": 6994,
      "bongos": 6995,
      "hurlant": 6996,
      "mollet": 6997,
      "melons": 6998,
      "ratisse": 6999,
      "rideau": 7000,
      "protestation": 7001,
      "braque": 7002,
      "inacheve": 7003,
      "neglige": 7004,
      "eclat": 7005,
      "musulmans": 7006,
      "completement": 7007,
      "particulier": 7008,
      "pneumatiques": 7009,
      "proprietaire": 7010,
      "pagaye": 7011,
      "textos": 7012,
      "menuisier": 7013,
      "posterieur": 7014,
      "agriculteur": 7015,
      "bavardent": 7016,
      "cygne": 7017,
      "deployees": 7018,
      "inhabituelle": 7019,
      "eparpilles": 7020,
      "ombragee": 7021,
      "cireur": 7022,
      "congres": 7023,
      "larges": 7024,
      "lourd": 7025,
      "tiare": 7026,
      "tarte": 7027,
      "veut": 7028,
      "primaire": 7029,
      "enfoncant": 7030,
      "appartenant": 7031,
      "vieillards": 7032,
      "accessoires": 7033,
      "charcuterie": 7034,
      "panoramique": 7035,
      "patrouille": 7036,
      "occasion": 7037,
      "immobil": 7038,
      "luxuriante": 7039,
      "handicapee": 7040,
      "lyceens": 7041,
      "cagoule": 7042,
      "gigantesque": 7043,
      "gesticule": 7044,
      "hamburgers": 7045,
      "saint": 7046,
      "squelette": 7047,
      "ukulele": 7048,
      "sablon": 7049,
      "prefere": 7050,
      "caricature": 7051,
      "pieuvre": 7052,
      "agreable": 7053,
      "emballage": 7054,
      "cornets": 7055,
      "electricien": 7056,
      "dizaines": 7057,
      "explosion": 7058,
      "accompagnee": 7059,
      "ascenseur": 7060,
      "relaxant": 7061,
      "concurrents": 7062,
      "britannique": 7063,
      "dauphin": 7064,
      "seniors": 7065,
      "ustensiles": 7066,
      "telecommande": 7067,
      "bousculent": 7068,
      "benev": 7069,
      "cause": 7070,
      "drainage": 7071,
      "fitness": 7072,
      "ficelle": 7073,
      "guir": 7074,
      "nœuds": 7075,
      "sumo": 7076,
      "situation": 7077,
      "twister": 7078,
      "yamaha": 7079,
      "unicef": 7080,
      "deneiger": 7081,
      "etincelles": 7082,
      "lambeaux": 7083,
      "quatrieme": 7084,
      "seminaire": 7085,
      "country": 7086,
      "chacune": 7087,
      "attachent": 7088,
      "carriole": 7089,
      "contravention": 7090,
      "patisseries": 7091,
      "periode": 7092,
      "endommage": 7093,
      "renaissance": 7094,
      "diaporama": 7095,
      "deltaplane": 7096,
      "hotdogs": 7097,
      "kitchenaid": 7098,
      "00": 7099,
      "11": 7100,
      "14": 7101,
      "24": 7102,
      "ai": 7103,
      "aur": 7104,
      "ait": 7105,
      "ache": 7106,
      "astron": 7107,
      "bret": 7108,
      "cot": 7109,
      "cav": 7110,
      "corte": 7111,
      "cages": 7112,
      "dar": 7113,
      "dal": 7114,
      "dure": 7115,
      "dav": 7116,
      "day": 7117,
      "dix": 7118,
      "danger": 7119,
      "drible": 7120,
      "eques": 7121,
      "eper": 7122,
      "fire": 7123,
      "fun": 7124,
      "forte": 7125,
      "fide": 7126,
      "flex": 7127,
      "fierement": 7128,
      "gy": 7129,
      "gay": 7130,
      "gosse": 7131,
      "gamb": 7132,
      "hisse": 7133,
      "hut": 7134,
      "hach": 7135,
      "jon": 7136,
      "jer": 7137,
      "jim": 7138,
      "lois": 7139,
      "lect": 7140,
      "lente": 7141,
      "lim": 7142,
      "lies": 7143,
      "my": 7144,
      "mend": 7145,
      "mouse": 7146,
      "must": 7147,
      "mich": 7148,
      "mosque": 7149,
      "mosa": 7150,
      "mug": 7151,
      "nec": 7152,
      "nin": 7153,
      "nint": 7154,
      "nid": 7155,
      "ox": 7156,
      "opin": 7157,
      "pes": 7158,
      "puis": 7159,
      "piss": 7160,
      "pad": 7161,
      "pages": 7162,
      "put": 7163,
      "ponce": 7164,
      "pese": 7165,
      "panda": 7166,
      "puma": 7167,
      "rot": 7168,
      "rend": 7169,
      "rab": 7170,
      "rate": 7171,
      "rig": 7172,
      "rect": 7173,
      "rateau": 7174,
      "rid": 7175,
      "rentre": 7176,
      "rendre": 7177,
      "sch": 7178,
      "suis": 7179,
      "section": 7180,
      "tue": 7181,
      "tard": 7182,
      "tul": 7183,
      "tim": 7184,
      "test": 7185,
      "tasses": 7186,
      "vir": 7187,
      "vall": 7188,
      "vig": 7189,
      "vale": 7190,
      "voute": 7191,
      "vape": 7192,
      "wc": 7193,
      "wok": 7194,
      "wii": 7195,
      "##ren": 7196,
      "##roupe": 7197,
      "##rif": 7198,
      "##rene": 7199,
      "##rouve": 7200,
      "##rice": 7201,
      "##rick": 7202,
      "##riger": 7203,
      "##action": 7204,
      "##amment": 7205,
      "##aok": 7206,
      "##titude": 7207,
      "##ias": 7208,
      "##iole": 7209,
      "##iaire": 7210,
      "##iance": 7211,
      "##iquer": 7212,
      "##ual": 7213,
      "##uve": 7214,
      "##uite": 7215,
      "##emp": 7216,
      "##can": 7217,
      "##cin": 7218,
      "##cal": 7219,
      "##cod": 7220,
      "##cteurs": 7221,
      "##pla": 7222,
      "##page": 7223,
      "##pper": 7224,
      "##ome": 7225,
      "##own": 7226,
      "##ood": 7227,
      "##hd": 7228,
      "##hers": 7229,
      "##hanne": 7230,
      "##nam": 7231,
      "##nettes": 7232,
      "##namique": 7233,
      "##va": 7234,
      "##vor": 7235,
      "##vel": 7236,
      "##ste": 7237,
      "##dant": 7238,
      "##dis": 7239,
      "##dent": 7240,
      "##dos": 7241,
      "##dgers": 7242,
      "##mac": 7243,
      "##lit": 7244,
      "##lique": 7245,
      "##lister": 7246,
      "##ynamique": 7247,
      "##gi": 7248,
      "##gar": 7249,
      "##gaph": 7250,
      "##xe": 7251,
      "##xion": 7252,
      "##jab": 7253,
      "unisson": 7254,
      "##any": 7255,
      "##anon": 7256,
      "##anche": 7257,
      "##anneuse": 7258,
      "##esp": 7259,
      "##ester": 7260,
      "##urn": 7261,
      "##urre": 7262,
      "##enlit": 7263,
      "##onst": 7264,
      "##onnant": 7265,
      "##ononce": 7266,
      "##eres": 7267,
      "##eries": 7268,
      "##mmer": 7269,
      "##ouvant": 7270,
      "##arie": 7271,
      "##arres": 7272,
      "ens": 7273,
      "enne": 7274,
      "enrou": 7275,
      "##ech": 7276,
      "##ecter": 7277,
      "##eche": 7278,
      "danseur": 7279,
      "surch": 7280,
      "##uels": 7281,
      "##reintes": 7282,
      "##inable": 7283,
      "##iness": 7284,
      "ave": 7285,
      "avir": 7286,
      "avancer": 7287,
      "chan": 7288,
      "chasser": 7289,
      "chœur": 7290,
      "chuch": 7291,
      "##oraire": 7292,
      "##etch": 7293,
      "##eting": 7294,
      "##etnam": 7295,
      "las": 7296,
      "lache": 7297,
      "lame": 7298,
      "laisses": 7299,
      "laveur": 7300,
      "latex": 7301,
      "##iration": 7302,
      "##itative": 7303,
      "##chos": 7304,
      "##chons": 7305,
      "##chages": 7306,
      "##oureusement": 7307,
      "##ourdes": 7308,
      "##ssent": 7309,
      "trient": 7310,
      "trape": 7311,
      "trio": 7312,
      "troupes": 7313,
      "lei": 7314,
      "lez": 7315,
      "##erse": 7316,
      "##ators": 7317,
      "##atown": 7318,
      "##ontant": 7319,
      "griff": 7320,
      "grign": 7321,
      "graines": 7322,
      "grains": 7323,
      "graph": 7324,
      "##pelet": 7325,
      "aube": 7326,
      "aubes": 7327,
      "auquel": 7328,
      "##otoir": 7329,
      "##illees": 7330,
      "##iemment": 7331,
      "estrade": 7332,
      "##ierge": 7333,
      "rejo": 7334,
      "revenant": 7335,
      "quas": 7336,
      "quais": 7337,
      "coc": 7338,
      "coqu": 7339,
      "##iences": 7340,
      "assoit": 7341,
      "assoient": 7342,
      "mart": 7343,
      "mare": 7344,
      "marais": 7345,
      "marteaux": 7346,
      "parent": 7347,
      "parois": 7348,
      "assisent": 7349,
      "printe": 7350,
      "protes": 7351,
      "prosp": 7352,
      "prononce": 7353,
      "semb": 7354,
      "sequ": 7355,
      "seins": 7356,
      "sejour": 7357,
      "sedu": 7358,
      "fac": 7359,
      "facteur": 7360,
      "favor": 7361,
      "regle": 7362,
      "regroupe": 7363,
      "deballant": 7364,
      "##conte": 7365,
      "##mbler": 7366,
      "##lages": 7367,
      "##lades": 7368,
      "##oisse": 7369,
      "##ications": 7370,
      "##icots": 7371,
      "ard": 7372,
      "tenus": 7373,
      "tension": 7374,
      "petrole": 7375,
      "portiere": 7376,
      "couronne": 7377,
      "##olant": 7378,
      "##allow": 7379,
      "##endo": 7380,
      "##abes": 7381,
      "##abeau": 7382,
      "pourrait": 7383,
      "##agle": 7384,
      "##mps": 7385,
      "##mpons": 7386,
      "##mplement": 7387,
      "bric": 7388,
      "brasse": 7389,
      "brum": 7390,
      "brume": 7391,
      "brad": 7392,
      "brillent": 7393,
      "##itement": 7394,
      "##iteurs": 7395,
      "sauce": 7396,
      "saumon": 7397,
      "sauna": 7398,
      "veranda": 7399,
      "couette": 7400,
      "cousant": 7401,
      "couteaux": 7402,
      "chambres": 7403,
      "chapelet": 7404,
      "##ionne": 7405,
      "faites": 7406,
      "##igh": 7407,
      "orgue": 7408,
      "provision": 7409,
      "phare": 7410,
      "presentes": 7411,
      "presentant": 7412,
      "pressent": 7413,
      "preserv": 7414,
      "pole": 7415,
      "poings": 7416,
      "poignees": 7417,
      "poker": 7418,
      "popc": 7419,
      "play": 7420,
      "plaisant": 7421,
      "plaques": 7422,
      "places": 7423,
      "plaquent": 7424,
      "plastron": 7425,
      "##ulent": 7426,
      "planeur": 7427,
      "##amatique": 7428,
      "balaient": 7429,
      "noeu": 7430,
      "nombres": 7431,
      "temo": 7432,
      "out": 7433,
      "velu": 7434,
      "ballots": 7435,
      "##ousine": 7436,
      "dessert": 7437,
      "desserts": 7438,
      "beign": 7439,
      "beurre": 7440,
      "beagle": 7441,
      "ecur": 7442,
      "ecou": 7443,
      "##umini": 7444,
      "##lone": 7445,
      "exce": 7446,
      "exemp": 7447,
      "trottant": 7448,
      "fron": 7449,
      "frite": 7450,
      "frenet": 7451,
      "franges": 7452,
      "fraise": 7453,
      "frisee": 7454,
      "frustre": 7455,
      "appuient": 7456,
      "skater": 7457,
      "conce": 7458,
      "conces": 7459,
      "coney": 7460,
      "derape": 7461,
      "##ectus": 7462,
      "alignent": 7463,
      "algues": 7464,
      "altitude": 7465,
      "alumini": 7466,
      "scru": 7467,
      "scint": 7468,
      "store": 7469,
      "stup": 7470,
      "strob": 7471,
      "story": 7472,
      "amicale": 7473,
      "boisse": 7474,
      "##bote": 7475,
      "##book": 7476,
      "hero": 7477,
      "neigeux": 7478,
      "vik": 7479,
      "vietnam": 7480,
      "##oneige": 7481,
      "barman": 7482,
      "barric": 7483,
      "barbote": 7484,
      "baches": 7485,
      "baissant": 7486,
      "bacs": 7487,
      "metre": 7488,
      "metres": 7489,
      "verser": 7490,
      "versent": 7491,
      "manie": 7492,
      "manque": 7493,
      "manuels": 7494,
      "pred": 7495,
      "##ctique": 7496,
      "spir": 7497,
      "space": 7498,
      "spher": 7499,
      "##umeau": 7500,
      "##raille": 7501,
      "boudd": 7502,
      "vieillot": 7503,
      "parcelle": 7504,
      "##ationaux": 7505,
      "caill": 7506,
      "cacher": 7507,
      "cachent": 7508,
      "caissiere": 7509,
      "escar": 7510,
      "escabeau": 7511,
      "bases": 7512,
      "basculer": 7513,
      "peigne": 7514,
      "pelage": 7515,
      "habiller": 7516,
      "replie": 7517,
      "##estent": 7518,
      "magiques": 7519,
      "magicien": 7520,
      "carac": 7521,
      "carnet": 7522,
      "##erement": 7523,
      "canine": 7524,
      "##oupier": 7525,
      "contr": 7526,
      "pleurant": 7527,
      "televise": 7528,
      "border": 7529,
      "bordures": 7530,
      "ang": 7531,
      "##vrir": 7532,
      "equipage": 7533,
      "tresse": 7534,
      "##acant": 7535,
      "poll": 7536,
      "recule": 7537,
      "reconst": 7538,
      "parties": 7539,
      "visitant": 7540,
      "accueille": 7541,
      "chevalier": 7542,
      "top": 7543,
      "toast": 7544,
      "muscul": 7545,
      "megaph": 7546,
      "meeting": 7547,
      "entrejambe": 7548,
      "##ipes": 7549,
      "surfent": 7550,
      "cyclable": 7551,
      "compagne": 7552,
      "company": 7553,
      "dojo": 7554,
      "race": 7555,
      "raides": 7556,
      "raconte": 7557,
      "##ormee": 7558,
      "profil": 7559,
      "profiter": 7560,
      "##geres": 7561,
      "boa": 7562,
      "promouvant": 7563,
      "feuillage": 7564,
      "feuillages": 7565,
      "##onneuse": 7566,
      "charger": 7567,
      "chargent": 7568,
      "volante": 7569,
      "rames": 7570,
      "tournent": 7571,
      "frappes": 7572,
      "crier": 7573,
      "cranes": 7574,
      "croupier": 7575,
      "serrer": 7576,
      "serree": 7577,
      "agress": 7578,
      "decl": 7579,
      "decident": 7580,
      "decider": 7581,
      "patrick": 7582,
      "patiemment": 7583,
      "etreinte": 7584,
      "##opiques": 7585,
      "publicitaires": 7586,
      "monster": 7587,
      "perman": 7588,
      "percer": 7589,
      "permet": 7590,
      "##versee": 7591,
      "peintures": 7592,
      "pleins": 7593,
      "epi": 7594,
      "eprou": 7595,
      "eplu": 7596,
      "depasser": 7597,
      "depanneuse": 7598,
      "attrapent": 7599,
      "remplir": 7600,
      "buche": 7601,
      "bucher": 7602,
      "vote": 7603,
      "##igner": 7604,
      "element": 7605,
      "chanteurs": 7606,
      "tabac": 7607,
      "drapee": 7608,
      "sech": 7609,
      "secs": 7610,
      "secur": 7611,
      "sechant": 7612,
      "crepes": 7613,
      "papillons": 7614,
      "moi": 7615,
      "moines": 7616,
      "affron": 7617,
      "affale": 7618,
      "juge": 7619,
      "jump": 7620,
      "balancelle": 7621,
      "balancoires": 7622,
      "policiere": 7623,
      "business": 7624,
      "motoneige": 7625,
      "echiqu": 7626,
      "preparation": 7627,
      "love": 7628,
      "loint": 7629,
      "ordinaire": 7630,
      "concu": 7631,
      "concierge": 7632,
      "flic": 7633,
      "flous": 7634,
      "barbie": 7635,
      "barbeles": 7636,
      "deformee": 7637,
      "sucant": 7638,
      "machette": 7639,
      "carrelee": 7640,
      "glissent": 7641,
      "evac": 7642,
      "lancee": 7643,
      "lego": 7644,
      "pointu": 7645,
      "fero": 7646,
      "ferrov": 7647,
      "mouche": 7648,
      "moulants": 7649,
      "moulante": 7650,
      "familles": 7651,
      "sportifs": 7652,
      "cirant": 7653,
      "cirque": 7654,
      "sortis": 7655,
      "effets": 7656,
      "recouverts": 7657,
      "recouvertes": 7658,
      "retient": 7659,
      "retra": 7660,
      "retrouve": 7661,
      "exprime": 7662,
      "avantage": 7663,
      "##oyens": 7664,
      "corbe": 7665,
      "pilot": 7666,
      "piliers": 7667,
      "disques": 7668,
      "parka": 7669,
      "important": 7670,
      "importante": 7671,
      "souc": 7672,
      "souche": 7673,
      "pompons": 7674,
      "ecrivent": 7675,
      "bouchee": 7676,
      "direct": 7677,
      "dirait": 7678,
      "diriges": 7679,
      "directement": 7680,
      "empiles": 7681,
      "empreintes": 7682,
      "joe": 7683,
      "joker": 7684,
      "##omet": 7685,
      "##omot": 7686,
      "pompe": 7687,
      "paves": 7688,
      "pavillon": 7689,
      "foncees": 7690,
      "etudier": 7691,
      "etudient": 7692,
      "##ultane": 7693,
      "capes": 7694,
      "clairiere": 7695,
      "espad": 7696,
      "espagne": 7697,
      "seuls": 7698,
      "envole": 7699,
      "protecteurs": 7700,
      "skimbo": 7701,
      "classeur": 7702,
      "fouillant": 7703,
      "fougeres": 7704,
      "competences": 7705,
      "berets": 7706,
      "bergers": 7707,
      "berlin": 7708,
      "intern": 7709,
      "interesse": 7710,
      "servis": 7711,
      "##achi": 7712,
      "botte": 7713,
      "gardes": 7714,
      "garden": 7715,
      "temporaire": 7716,
      "examen": 7717,
      "accrocher": 7718,
      "apprennent": 7719,
      "longueur": 7720,
      "animees": 7721,
      "bouleverse": 7722,
      "bouleversee": 7723,
      "##istr": 7724,
      "grave": 7725,
      "allumer": 7726,
      "sandale": 7727,
      "meditant": 7728,
      "medicale": 7729,
      "medailles": 7730,
      "suspendues": 7731,
      "boutiques": 7732,
      "boutonnee": 7733,
      "bowl": 7734,
      "paques": 7735,
      "dense": 7736,
      "dentiste": 7737,
      "motocyc": 7738,
      "motocyclette": 7739,
      "abond": 7740,
      "force": 7741,
      "pasteur": 7742,
      "mariachi": 7743,
      "bagarre": 7744,
      "fourn": 7745,
      "fourre": 7746,
      "fournit": 7747,
      "avions": 7748,
      "refriger": 7749,
      "eclaboussee": 7750,
      "aerien": 7751,
      "ceramique": 7752,
      "geomet": 7753,
      "coiffer": 7754,
      "coiffee": 7755,
      "patinant": 7756,
      "patinage": 7757,
      "chinatown": 7758,
      "argentes": 7759,
      "tendues": 7760,
      "orientaux": 7761,
      "orientales": 7762,
      "employee": 7763,
      "marathoniens": 7764,
      "demene": 7765,
      "flamme": 7766,
      "tissage": 7767,
      "pelucheux": 7768,
      "conduite": 7769,
      "rituelle": 7770,
      "simplement": 7771,
      "vaquent": 7772,
      "flane": 7773,
      "miroirs": 7774,
      "fleuris": 7775,
      "navette": 7776,
      "eclabousser": 7777,
      "retournee": 7778,
      "talkie": 7779,
      "intrig": 7780,
      "profondement": 7781,
      "souffre": 7782,
      "soufflent": 7783,
      "survetements": 7784,
      "maquiller": 7785,
      "vivement": 7786,
      "pietine": 7787,
      "decorant": 7788,
      "decoratif": 7789,
      "apprecier": 7790,
      "cavaliere": 7791,
      "karaok": 7792,
      "collec": 7793,
      "colley": 7794,
      "tournevis": 7795,
      "affronter": 7796,
      "occupee": 7797,
      "haricots": 7798,
      "jongleur": 7799,
      "branchages": 7800,
      "inspiration": 7801,
      "humor": 7802,
      "joliment": 7803,
      "piqueur": 7804,
      "propane": 7805,
      "palourdes": 7806,
      "appliquant": 7807,
      "alimentation": 7808,
      "commercante": 7809,
      "commerciale": 7810,
      "crocs": 7811,
      "crocod": 7812,
      "tremp": 7813,
      "tricoter": 7814,
      "tricycles": 7815,
      "citoyens": 7816,
      "faconne": 7817,
      "reser": 7818,
      "traces": 7819,
      "grillades": 7820,
      "##ressent": 7821,
      "plates": 7822,
      "pains": 7823,
      "chargee": 7824,
      "voilees": 7825,
      "ollie": 7826,
      "cowboys": 7827,
      "naviguent": 7828,
      "immerge": 7829,
      "pratiquer": 7830,
      "urbains": 7831,
      "locaux": 7832,
      "locomot": 7833,
      "detendre": 7834,
      "savoureux": 7835,
      "arretes": 7836,
      "telephoniques": 7837,
      "couloirs": 7838,
      "dejeunant": 7839,
      "crampons": 7840,
      "menent": 7841,
      "menus": 7842,
      "attaque": 7843,
      "attachant": 7844,
      "decoupes": 7845,
      "nouvel": 7846,
      "nouvelles": 7847,
      "cadres": 7848,
      "anciens": 7849,
      "melanger": 7850,
      "melangent": 7851,
      "meute": 7852,
      "origines": 7853,
      "installer": 7854,
      "dramatique": 7855,
      "usa": 7856,
      "##iction": 7857,
      "pourchassent": 7858,
      "eclairees": 7859,
      "employees": 7860,
      "recuperant": 7861,
      "bmw": 7862,
      "emeute": 7863,
      "emotion": 7864,
      "emission": 7865,
      "dechar": 7866,
      "presentent": 7867,
      "tambourin": 7868,
      "allemands": 7869,
      "inclinee": 7870,
      "inclinable": 7871,
      "dieu": 7872,
      "diab": 7873,
      "porcs": 7874,
      "tranchee": 7875,
      "colorier": 7876,
      "nourrissant": 7877,
      "exploit": 7878,
      "syste": 7879,
      "sari": 7880,
      "saisir": 7881,
      "verdoyantes": 7882,
      "lecteur": 7883,
      "etals": 7884,
      "angels": 7885,
      "vitrees": 7886,
      "distribue": 7887,
      "distribuant": 7888,
      "recipients": 7889,
      "dinent": 7890,
      "dindes": 7891,
      "divan": 7892,
      "formations": 7893,
      "galop": 7894,
      "galope": 7895,
      "rangs": 7896,
      "verifier": 7897,
      "dessinent": 7898,
      "dessinees": 7899,
      "bambous": 7900,
      "chaudement": 7901,
      "installees": 7902,
      "artisanale": 7903,
      "devoirs": 7904,
      "enlacent": 7905,
      "ecolier": 7906,
      "excitant": 7907,
      "communique": 7908,
      "fermee": 7909,
      "deguiser": 7910,
      "reflechissantes": 7911,
      "assorti": 7912,
      "assortis": 7913,
      "escrimeurs": 7914,
      "flotteurs": 7915,
      "maquillees": 7916,
      "supports": 7917,
      "horizont": 7918,
      "bless": 7919,
      "mixeur": 7920,
      "steth": 7921,
      "trucs": 7922,
      "broad": 7923,
      "pataugent": 7924,
      "elegants": 7925,
      "elegantes": 7926,
      "protegee": 7927,
      "turbans": 7928,
      "voyageur": 7929,
      "caddies": 7930,
      "walk": 7931,
      "walkie": 7932,
      "tribunes": 7933,
      "reduit": 7934,
      "redige": 7935,
      "extremites": 7936,
      "interagissant": 7937,
      "cornemuses": 7938,
      "opposee": 7939,
      "pasteque": 7940,
      "##landes": 7941,
      "archeolog": 7942,
      "##roitement": 7943,
      "mannequins": 7944,
      "recoltent": 7945,
      "imprimee": 7946,
      "soudeur": 7947,
      "intervenant": 7948,
      "renversee": 7949,
      "delabree": 7950,
      "divertissant": 7951,
      "chirurgical": 7952,
      "burq": 7953,
      "burger": 7954,
      "sirote": 7955,
      "sirotant": 7956,
      "simultane": 7957,
      "uniquement": 7958,
      "libere": 7959,
      "apprendre": 7960,
      "celebrer": 7961,
      "technicien": 7962,
      "luttant": 7963,
      "message": 7964,
      "extra": 7965,
      "mexique": 7966,
      "suivie": 7967,
      "soudage": 7968,
      "espagnole": 7969,
      "blessee": 7970,
      "pataugeant": 7971,
      "pataugeoire": 7972,
      "diplomes": 7973,
      "centaines": 7974,
      "casseroles": 7975,
      "##ooing": 7976,
      "asperges": 7977,
      "caresser": 7978,
      "sodas": 7979,
      "athletiques": 7980,
      "rebondit": 7981,
      "illuminee": 7982,
      "farm": 7983,
      "guerrier": 7984,
      "histoire": 7985,
      "robuste": 7986,
      "brassiere": 7987,
      "coussins": 7988,
      "organise": 7989,
      "classiques": 7990,
      "echauffer": 7991,
      "impressionn": 7992,
      "interessantes": 7993,
      "medieval": 7994,
      "medievaux": 7995,
      "percussions": 7996,
      "louche": 7997,
      "luxe": 7998,
      "niveaux": 7999,
      "rentrant": 8000,
      "chiffons": 8001,
      "parallelement": 8002,
      "armure": 8003,
      "index": 8004,
      "terminent": 8005,
      "manœuvre": 8006,
      "manœuvrant": 8007,
      "prelassent": 8008,
      "canadiens": 8009,
      "masculin": 8010,
      "hawaien": 8011,
      "enregistreuse": 8012,
      "dribb": 8013,
      "island": 8014,
      "kitty": 8015,
      "enterre": 8016,
      "comique": 8017,
      "poignets": 8018,
      "balaye": 8019,
      "balayer": 8020,
      "cahiers": 8021,
      "piercings": 8022,
      "projete": 8023,
      "engagement": 8024,
      "smasher": 8025,
      "explorant": 8026,
      "explorateur": 8027,
      "brochettes": 8028,
      "interview": 8029,
      "amph": 8030,
      "cueille": 8031,
      "cueillant": 8032,
      "futs": 8033,
      "kimono": 8034,
      "oeuvre": 8035,
      "sinistre": 8036,
      "desordre": 8037,
      "desordonne": 8038,
      "etiquette": 8039,
      "etiquettes": 8040,
      "audition": 8041,
      "audio": 8042,
      "releve": 8043,
      "cockt": 8044,
      "##oscopiques": 8045,
      "invite": 8046,
      "inconnu": 8047,
      "encadrees": 8048,
      "officiels": 8049,
      "mecanique": 8050,
      "mecanicien": 8051,
      "arrangeant": 8052,
      "bronzant": 8053,
      "hispaniques": 8054,
      "bongo": 8055,
      "irrite": 8056,
      "loterie": 8057,
      "mesure": 8058,
      "molle": 8059,
      "massues": 8060,
      "ohio": 8061,
      "poncho": 8062,
      "ponchos": 8063,
      "tague": 8064,
      "desarconne": 8065,
      "desarconner": 8066,
      "aventure": 8067,
      "inachevee": 8068,
      "contemplant": 8069,
      "politique": 8070,
      "politiques": 8071,
      "amerindiens": 8072,
      "comprend": 8073,
      "comprenant": 8074,
      "joggeurs": 8075,
      "pneumatique": 8076,
      "proprietaires": 8077,
      "doucement": 8078,
      "respect": 8079,
      "textile": 8080,
      "menuiserie": 8081,
      "assemblee": 8082,
      "agriculteurs": 8083,
      "bavarder": 8084,
      "cygnes": 8085,
      "eparpillees": 8086,
      "cierge": 8087,
      "cierges": 8088,
      "gauf": 8089,
      "zombie": 8090,
      "zombies": 8091,
      "##point": 8092,
      "quotidien": 8093,
      "accidente": 8094,
      "agrippe": 8095,
      "agrippant": 8096,
      "flotteur": 8097,
      "conditions": 8098,
      "cupcake": 8099,
      "cupcakes": 8100,
      "capitaine": 8101,
      "detourne": 8102,
      "detournant": 8103,
      "abandonne": 8104,
      "etrangers": 8105,
      "confortablement": 8106,
      "poursuiv": 8107,
      "embarcation": 8108,
      "sponsorise": 8109,
      "bunker": 8110,
      "cardia": 8111,
      "cruche": 8112,
      "half": 8113,
      "hangar": 8114,
      "sanitaires": 8115,
      "toyota": 8116,
      "hollister": 8117,
      "survolant": 8118,
      "rembourre": 8119,
      "precip": 8120,
      "samour": 8121,
      "autocollants": 8122,
      "pluvieuse": 8123,
      "physique": 8124,
      "possession": 8125,
      "powerpoint": 8126,
      "maillet": 8127,
      "deroulent": 8128,
      "battue": 8129,
      "escarpee": 8130,
      "rechaud": 8131,
      "meilleure": 8132,
      "tournesol": 8133,
      "patisserie": 8134,
      "commerce": 8135,
      "crevettes": 8136,
      "concentres": 8137,
      "correctement": 8138,
      "incroyable": 8139,
      "flamboyant": 8140,
      "parachutiste": 8141,
      "symbole": 8142,
      "elasthanne": 8143,
      "showgirl": 8144,
      "conserves": 8145,
      "pingouin": 8146,
      "effrayee": 8147,
      "husky": 8148,
      "surdimensionne": 8149,
      "abeille": 8150,
      "ampli": 8151,
      "bidon": 8152,
      "folle": 8153,
      "hydr": 8154,
      "lentille": 8155,
      "mallette": 8156,
      "tartan": 8157,
      "varech": 8158,
      "enchaine": 8159,
      "aviateur": 8160,
      "avertissement": 8161,
      "chalumeau": 8162,
      "lakers": 8163,
      "grenouille": 8164,
      "cookies": 8165,
      "market": 8166,
      "assistante": 8167,
      "fascine": 8168,
      "arrache": 8169,
      "shampooing": 8170,
      "lesquels": 8171,
      "saupoudre": 8172,
      "chamallow": 8173,
      "pharmac": 8174,
      "calecon": 8175,
      "contractant": 8176,
      "controler": 8177,
      "camarades": 8178,
      "sombrero": 8179,
      "recherche": 8180,
      "partenaire": 8181,
      "accelerant": 8182,
      "entrelaces": 8183,
      "tambours": 8184,
      "serpill": 8185,
      "buggy": 8186,
      "paperasse": 8187,
      "figurines": 8188,
      "retirer": 8189,
      "touffue": 8190,
      "espece": 8191,
      "multiples": 8192,
      "californ": 8193,
      "insolite": 8194,
      "horloge": 8195,
      "renvoyer": 8196,
      "institut": 8197,
      "ambulance": 8198,
      "originaire": 8199,
      "bijouterie": 8200,
      "teckel": 8201,
      "ebouriffes": 8202,
      "delicieuse": 8203,
      "slalome": 8204,
      "broussaille": 8205,
      "technologie": 8206,
      "goudronnee": 8207,
      "exhibant": 8208,
      "couturiere": 8209,
      "antiquites": 8210,
      "flechettes": 8211,
      "sablonneuse": 8212,
      "benevoles": 8213,
      "guirlandes": 8214,
      "astronaute": 8215,
      "cortege": 8216,
      "dalmat": 8217,
      "dangereusement": 8218,
      "equestre": 8219,
      "eperon": 8220,
      "huttes": 8221,
      "jonche": 8222,
      "lecture": 8223,
      "lentement": 8224,
      "limousine": 8225,
      "liesse": 8226,
      "mendiant": 8227,
      "mustang": 8228,
      "mosquee": 8229,
      "mosaique": 8230,
      "necess": 8231,
      "nintendo": 8232,
      "oxford": 8233,
      "opinions": 8234,
      "pissenlit": 8235,
      "padd": 8236,
      "putt": 8237,
      "rectang": 8238,
      "tulipes": 8239,
      "vallonne": 8240,
      "vigoureusement": 8241,
      "valeur": 8242,
      "##rifie": 8243,
      "enneiges": 8244,
      "aviron": 8245,
      "chuchote": 8246,
      "trapeze": 8247,
      "grignote": 8248,
      "graphique": 8249,
      "printemps": 8250,
      "prospectus": 8251,
      "seduisante": 8252,
      "regroupees": 8253,
      "provisions": 8254,
      "popcorn": 8255,
      "temoin": 8256,
      "beignets": 8257,
      "frenetiquement": 8258,
      "aluminium": 8259,
      "stroboscopiques": 8260,
      "caracteres": 8261,
      "reconstit": 8262,
      "musculation": 8263,
      "megaphone": 8264,
      "echiquier": 8265,
      "skimboard": 8266,
      "fournitures": 8267,
      "refrigerateur": 8268,
      "intrigue": 8269,
      "karaoke": 8270,
      "crocodile": 8271,
      "systeme": 8272,
      "stethoscope": 8273,
      "simultanement": 8274,
      "25": 8275,
      "28": 8276,
      "30": 8277,
      "38": 8278,
      "4x": 8279,
      "63": 8280,
      "80": 8281,
      "96": 8282,
      "ast": 8283,
      "aille": 8284,
      "ade": 8285,
      "aile": 8286,
      "ambre": 8287,
      "aim": 8288,
      "aiment": 8289,
      "bis": 8290,
      "bient": 8291,
      "bate": 8292,
      "bap": 8293,
      "bage": 8294,
      "bisc": 8295,
      "bip": 8296,
      "binette": 8297,
      "becher": 8298,
      "cd": 8299,
      "cand": 8300,
      "cure": 8301,
      "cend": 8302,
      "cine": 8303,
      "care": 8304,
      "cesse": 8305,
      "cibles": 8306,
      "coton": 8307,
      "dire": 8308,
      "dirt": 8309,
      "dres": 8310,
      "dine": 8311,
      "dig": 8312,
      "doule": 8313,
      "dons": 8314,
      "diss": 8315,
      "dim": 8316,
      "did": 8317,
      "dance": 8318,
      "dinant": 8319,
      "duel": 8320,
      "dynamique": 8321,
      "dressent": 8322,
      "eu": 8323,
      "emble": 8324,
      "eiff": 8325,
      "east": 8326,
      "fis": 8327,
      "fous": 8328,
      "fiss": 8329,
      "fuse": 8330,
      "fini": 8331,
      "fument": 8332,
      "fish": 8333,
      "fuyant": 8334,
      "ga": 8335,
      "gent": 8336,
      "gall": 8337,
      "gere": 8338,
      "gond": 8339,
      "gosses": 8340,
      "gast": 8341,
      "ha": 8342,
      "hul": 8343,
      "hui": 8344,
      "house": 8345,
      "hind": 8346,
      "iz": 8347,
      "ice": 8348,
      "iphone": 8349,
      "iow": 8350,
      "jes": 8351,
      "jar": 8352,
      "jume": 8353,
      "jui": 8354,
      "jac": 8355,
      "james": 8356,
      "kle": 8357,
      "king": 8358,
      "kom": 8359,
      "kaw": 8360,
      "kep": 8361,
      "keb": 8362,
      "lis": 8363,
      "let": 8364,
      "lif": 8365,
      "liste": 8366,
      "longe": 8367,
      "lissent": 8368,
      "limon": 8369,
      "mp": 8370,
      "mois": 8371,
      "mill": 8372,
      "mure": 8373,
      "moule": 8374,
      "mong": 8375,
      "mous": 8376,
      "masse": 8377,
      "mime": 8378,
      "miche": 8379,
      "mma": 8380,
      "ner": 8381,
      "nar": 8382,
      "nos": 8383,
      "nap": 8384,
      "nul": 8385,
      "niv": 8386,
      "niche": 8387,
      "nota": 8388,
      "oe": 8389,
      "ov": 8390,
      "oak": 8391,
      "oies": 8392,
      "ocu": 8393,
      "oxy": 8394,
      "ovation": 8395,
      "ps": 8396,
      "pard": 8397,
      "poir": 8398,
      "pab": 8399,
      "pay": 8400,
      "pagne": 8401,
      "pack": 8402,
      "ron": 8403,
      "ris": 8404,
      "rin": 8405,
      "run": 8406,
      "rass": 8407,
      "riche": 8408,
      "rib": 8409,
      "ratt": 8410,
      "ranch": 8411,
      "raison": 8412,
      "sant": 8413,
      "sat": 8414,
      "sun": 8415,
      "sing": 8416,
      "sere": 8417,
      "signant": 8418,
      "symp": 8419,
      "swing": 8420,
      "sœurs": 8421,
      "tv": 8422,
      "ton": 8423,
      "tot": 8424,
      "tole": 8425,
      "teste": 8426,
      "telle": 8427,
      "tac": 8428,
      "tonne": 8429,
      "tiens": 8430,
      "time": 8431,
      "tande": 8432,
      "tick": 8433,
      "tank": 8434,
      "uf": 8435,
      "vire": 8436,
      "visant": 8437,
      "vais": 8438,
      "vign": 8439,
      "vins": 8440,
      "vivent": 8441,
      "votre": 8442,
      "vador": 8443,
      "wh": 8444,
      "wall": 8445,
      "whe": 8446,
      "wee": 8447,
      "wond": 8448,
      "web": 8449,
      "wester": 8450,
      "yo": 8451,
      "ym": 8452,
      "yan": 8453,
      "yoy": 8454,
      "zig": 8455,
      "zune": 8456,
      "##ran": 8457,
      "##ror": 8458,
      "##rab": 8459,
      "##rilles": 8460,
      "##rous": 8461,
      "##rimes": 8462,
      "##ament": 8463,
      "##avant": 8464,
      "##afe": 8465,
      "##tige": 8466,
      "##ior": 8467,
      "##iac": 8468,
      "##iales": 8469,
      "##ieuses": 8470,
      "##ize": 8471,
      "##uge": 8472,
      "##uilles": 8473,
      "##uches": 8474,
      "##uzz": 8475,
      "##udemment": 8476,
      "##ement": 8477,
      "##cou": 8478,
      "##car": 8479,
      "##cre": 8480,
      "##cass": 8481,
      "##clee": 8482,
      "##pse": 8483,
      "##pire": 8484,
      "##porte": 8485,
      "##zar": 8486,
      "##zag": 8487,
      "##zaine": 8488,
      "##zels": 8489,
      "##ox": 8490,
      "##ost": 8491,
      "##ola": 8492,
      "##oper": 8493,
      "##ock": 8494,
      "##ods": 8495,
      "##oby": 8496,
      "##oivent": 8497,
      "##his": 8498,
      "##heur": 8499,
      "##house": 8500,
      "##haw": 8501,
      "##nk": 8502,
      "##nou": 8503,
      "##nie": 8504,
      "##nol": 8505,
      "##nite": 8506,
      "##niers": 8507,
      "##naie": 8508,
      "##naires": 8509,
      "##vin": 8510,
      "##vole": 8511,
      "##vons": 8512,
      "##vateurs": 8513,
      "##vrete": 8514,
      "##villon": 8515,
      "##vetres": 8516,
      "##sle": 8517,
      "##sus": 8518,
      "##sardes": 8519,
      "##sung": 8520,
      "##dou": 8521,
      "##dia": 8522,
      "##fles": 8523,
      "##mas": 8524,
      "##mine": 8525,
      "##mique": 8526,
      "##mong": 8527,
      "##moire": 8528,
      "##mane": 8529,
      "##melles": 8530,
      "##matiques": 8531,
      "##mentee": 8532,
      "##mnol": 8533,
      "##ld": 8534,
      "##ly": 8535,
      "##lins": 8536,
      "##lies": 8537,
      "##lotte": 8538,
      "##bag": 8539,
      "##bres": 8540,
      "##bron": 8541,
      "##bull": 8542,
      "##billon": 8543,
      "##burn": 8544,
      "##wan": 8545,
      "##ways": 8546,
      "##wood": 8547,
      "##yst": 8548,
      "##ypt": 8549,
      "##yrene": 8550,
      "##got": 8551,
      "##gie": 8552,
      "##gos": 8553,
      "##gene": 8554,
      "##gets": 8555,
      "##gway": 8556,
      "##xi": 8557,
      "##ki": 8558,
      "##ken": 8559,
      "##08": 8560,
      "##jou": 8561,
      "uni": 8562,
      "unie": 8563,
      "union": 8564,
      "uniques": 8565,
      "##anien": 8566,
      "##anad": 8567,
      "devis": 8568,
      "deverse": 8569,
      "##ura": 8570,
      "##ury": 8571,
      "##urst": 8572,
      "##urel": 8573,
      "##urette": 8574,
      "##urelle": 8575,
      "##urance": 8576,
      "##enes": 8577,
      "##enent": 8578,
      "##enge": 8579,
      "##enier": 8580,
      "##enance": 8581,
      "##ones": 8582,
      "##eron": 8583,
      "##erer": 8584,
      "##erans": 8585,
      "##erique": 8586,
      "##erieur": 8587,
      "##ernant": 8588,
      "##erence": 8589,
      "##erland": 8590,
      "##eranien": 8591,
      "##mmage": 8592,
      "##ouche": 8593,
      "##oules": 8594,
      "##ouillent": 8595,
      "##lees": 8596,
      "##leure": 8597,
      "##lectique": 8598,
      "##aran": 8599,
      "##ares": 8600,
      "##aron": 8601,
      "##arque": 8602,
      "##arrer": 8603,
      "enn": 8604,
      "enche": 8605,
      "enrol": 8606,
      "enjambe": 8607,
      "##tele": 8608,
      "##telle": 8609,
      "##teils": 8610,
      "hopper": 8611,
      "##entaine": 8612,
      "##entours": 8613,
      "##ectes": 8614,
      "##ectee": 8615,
      "desor": 8616,
      "desole": 8617,
      "desesp": 8618,
      "surg": 8619,
      "survole": 8620,
      "##ueusement": 8621,
      "##ueilli": 8622,
      "etir": 8623,
      "etendant": 8624,
      "etale": 8625,
      "##rets": 8626,
      "##inn": 8627,
      "##inche": 8628,
      "##inoir": 8629,
      "##inde": 8630,
      "##inaires": 8631,
      "##inning": 8632,
      "avis": 8633,
      "aval": 8634,
      "aveu": 8635,
      "avenir": 8636,
      "averse": 8637,
      "##iler": 8638,
      "##ilder": 8639,
      "##illance": 8640,
      "chall": 8641,
      "chope": 8642,
      "chut": 8643,
      "chales": 8644,
      "chatou": 8645,
      "choc": 8646,
      "chassant": 8647,
      "chassent": 8648,
      "##orise": 8649,
      "##oresc": 8650,
      "##orak": 8651,
      "##orld": 8652,
      "later": 8653,
      "laissent": 8654,
      "laitue": 8655,
      "laisser": 8656,
      "lapse": 8657,
      "##irway": 8658,
      "##ity": 8659,
      "##ital": 8660,
      "##iture": 8661,
      "##ithe": 8662,
      "##itaine": 8663,
      "##itimes": 8664,
      "##chage": 8665,
      "##gee": 8666,
      "##ources": 8667,
      "##ssu": 8668,
      "##sser": 8669,
      "trente": 8670,
      "trip": 8671,
      "tristes": 8672,
      "tricol": 8673,
      "truelle": 8674,
      "trentaine": 8675,
      "triture": 8676,
      "lev": 8677,
      "levre": 8678,
      "lebron": 8679,
      "##alm": 8680,
      "##alite": 8681,
      "##alymp": 8682,
      "##erses": 8683,
      "##stitue": 8684,
      "##atures": 8685,
      "##euil": 8686,
      "grange": 8687,
      "grace": 8688,
      "grog": 8689,
      "grillent": 8690,
      "grind": 8691,
      "gravant": 8692,
      "grenier": 8693,
      "grinche": 8694,
      "##pedes": 8695,
      "autel": 8696,
      "aujour": 8697,
      "##otent": 8698,
      "##otique": 8699,
      "##andes": 8700,
      "##andent": 8701,
      "##anderie": 8702,
      "##aincre": 8703,
      "rev": 8704,
      "remb": 8705,
      "requ": 8706,
      "revient": 8707,
      "reaction": 8708,
      "rejou": 8709,
      "quater": 8710,
      "##nesota": 8711,
      "##outent": 8712,
      "cos": 8713,
      "come": 8714,
      "comble": 8715,
      "cocher": 8716,
      "coreen": 8717,
      "cochon": 8718,
      "##quee": 8719,
      "##quets": 8720,
      "assoup": 8721,
      "assais": 8722,
      "assey": 8723,
      "marx": 8724,
      "marier": 8725,
      "marient": 8726,
      "marac": 8727,
      "marquant": 8728,
      "maritimes": 8729,
      "paris": 8730,
      "parav": 8731,
      "partent": 8732,
      "parleurs": 8733,
      "paresse": 8734,
      "parterre": 8735,
      "paralymp": 8736,
      "jeudi": 8737,
      "assister": 8738,
      "assistent": 8739,
      "pren": 8740,
      "priere": 8741,
      "prive": 8742,
      "prudemment": 8743,
      "##ortage": 8744,
      "garnit": 8745,
      "sel": 8746,
      "sein": 8747,
      "selles": 8748,
      "seah": 8749,
      "sexe": 8750,
      "segway": 8751,
      "rouet": 8752,
      "fais": 8753,
      "fact": 8754,
      "faim": 8755,
      "faible": 8756,
      "faci": 8757,
      "fachee": 8758,
      "fairway": 8759,
      "##asy": 8760,
      "##ases": 8761,
      "##asaki": 8762,
      "##aska": 8763,
      "##ascar": 8764,
      "regards": 8765,
      "regardes": 8766,
      "##conner": 8767,
      "enfer": 8768,
      "enfour": 8769,
      "debouts": 8770,
      "##lait": 8771,
      "##laille": 8772,
      "##lables": 8773,
      "##lamant": 8774,
      "##oises": 8775,
      "sait": 8776,
      "##icul": 8777,
      "arterie": 8778,
      "arcs": 8779,
      "arides": 8780,
      "petr": 8781,
      "##illas": 8782,
      "##illoire": 8783,
      "dunk": 8784,
      "portait": 8785,
      "##atives": 8786,
      "coure": 8787,
      "courro": 8788,
      "courbee": 8789,
      "courrier": 8790,
      "##qui": 8791,
      "##quante": 8792,
      "##quants": 8793,
      "queues": 8794,
      "##dee": 8795,
      "##elent": 8796,
      "##eling": 8797,
      "##elots": 8798,
      "##allent": 8799,
      "##uree": 8800,
      "##endent": 8801,
      "##abil": 8802,
      "##abet": 8803,
      "##abine": 8804,
      "##abee": 8805,
      "##oser": 8806,
      "##cee": 8807,
      "##agh": 8808,
      "##ague": 8809,
      "##mpt": 8810,
      "roi": 8811,
      "role": 8812,
      "rocks": 8813,
      "rodgers": 8814,
      "brig": 8815,
      "brisant": 8816,
      "branc": 8817,
      "broy": 8818,
      "bride": 8819,
      "bruy": 8820,
      "briser": 8821,
      "brocol": 8822,
      "brind": 8823,
      "brilla": 8824,
      "veterans": 8825,
      "gener": 8826,
      "##ineken": 8827,
      "##iteur": 8828,
      "sauf": 8829,
      "sauver": 8830,
      "marchande": 8831,
      "trainee": 8832,
      "##apes": 8833,
      "coute": 8834,
      "couettes": 8835,
      "couler": 8836,
      "coudes": 8837,
      "couvrir": 8838,
      "coucou": 8839,
      "couchage": 8840,
      "travest": 8841,
      "##agement": 8842,
      "chalet": 8843,
      "##ionn": 8844,
      "##igent": 8845,
      "##igator": 8846,
      "##igration": 8847,
      "##roi": 8848,
      "##rolet": 8849,
      "##roquet": 8850,
      "##rovise": 8851,
      "plient": 8852,
      "plomb": 8853,
      "pliee": 8854,
      "orateur": 8855,
      "oriente": 8856,
      "orioles": 8857,
      "orteils": 8858,
      "proble": 8859,
      "proces": 8860,
      "regardee": 8861,
      "regardez": 8862,
      "regardees": 8863,
      "presence": 8864,
      "inno": 8865,
      "poiv": 8866,
      "poke": 8867,
      "pops": 8868,
      "pochette": 8869,
      "placer": 8870,
      "placent": 8871,
      "may": 8872,
      "maitres": 8873,
      "maconner": 8874,
      "##ific": 8875,
      "atv": 8876,
      "atlant": 8877,
      "##uliere": 8878,
      "##ultent": 8879,
      "planchiste": 8880,
      "##amaran": 8881,
      "##ivres": 8882,
      "##ivelle": 8883,
      "balust": 8884,
      "baltim": 8885,
      "note": 8886,
      "##anciers": 8887,
      "airways": 8888,
      "casiers": 8889,
      "quelle": 8890,
      "team": 8891,
      "teinte": 8892,
      "teintes": 8893,
      "ouvertes": 8894,
      "terres": 8895,
      "velota": 8896,
      "attables": 8897,
      "##angeant": 8898,
      "beff": 8899,
      "neon": 8900,
      "neiges": 8901,
      "need": 8902,
      "neerland": 8903,
      "ecorce": 8904,
      "eclectique": 8905,
      "##onses": 8906,
      "##onsable": 8907,
      "montes": 8908,
      "monture": 8909,
      "monticules": 8910,
      "excent": 8911,
      "entendent": 8912,
      "frac": 8913,
      "france": 8914,
      "frime": 8915,
      "frites": 8916,
      "frouf": 8917,
      "fronce": 8918,
      "freres": 8919,
      "source": 8920,
      "sourires": 8921,
      "##ilement": 8922,
      "apportent": 8923,
      "sesame": 8924,
      "session": 8925,
      "sauteur": 8926,
      "longboard": 8927,
      "longtemp": 8928,
      "sketch": 8929,
      "trottoirs": 8930,
      "conge": 8931,
      "conif": 8932,
      "alph": 8933,
      "alignee": 8934,
      "aligner": 8935,
      "alentours": 8936,
      "alaska": 8937,
      "tablette": 8938,
      "scier": 8939,
      "scrab": 8940,
      "foulee": 8941,
      "stone": 8942,
      "start": 8943,
      "staff": 8944,
      "stock": 8945,
      "stones": 8946,
      "stabil": 8947,
      "##ffee": 8948,
      "aspire": 8949,
[...]
